
unsigned char model_data_tflite[] = {
  0x1c, 0x00, 0x00, 0x00, 0x54, 0x46, 0x4c, 0x33, 0x14, 0x00, 0x20, 0x00,
  0x1c, 0x00, 0x18, 0x00, 0x14, 0x00, 0x10, 0x00, 0x0c, 0x00, 0x00, 0x00,
  0x08, 0x00, 0x04, 0x00, 0x14, 0x00, 0x00, 0x00, 0x1c, 0x00, 0x00, 0x00,
  0x1c, 0x00, 0x00, 0x00, 0x74, 0x00, 0x00, 0x00, 0xb4, 0x5b, 0x00, 0x00,
  0xc4, 0x5b, 0x00, 0x00, 0x2c, 0x60, 0x00, 0x00, 0x03, 0x00, 0x00, 0x00,
  0x00, 0x00, 0x00, 0x00, 0x02, 0x00, 0x00, 0x00, 0x34, 0x00, 0x00, 0x00,
  0x04, 0x00, 0x00, 0x00, 0xdc, 0xff, 0xff, 0xff, 0x0c, 0x00, 0x00, 0x00,
  0x04, 0x00, 0x00, 0x00, 0x13, 0x00, 0x00, 0x00, 0x43, 0x4f, 0x4e, 0x56,
  0x45, 0x52, 0x53, 0x49, 0x4f, 0x4e, 0x5f, 0x4d, 0x45, 0x54, 0x41, 0x44,
  0x41, 0x54, 0x41, 0x00, 0x08, 0x00, 0x0c, 0x00, 0x08, 0x00, 0x04, 0x00,
  0x08, 0x00, 0x00, 0x00, 0x0b, 0x00, 0x00, 0x00, 0x04, 0x00, 0x00, 0x00,
  0x13, 0x00, 0x00, 0x00, 0x6d, 0x69, 0x6e, 0x5f, 0x72, 0x75, 0x6e, 0x74,
  0x69, 0x6d, 0x65, 0x5f, 0x76, 0x65, 0x72, 0x73, 0x69, 0x6f, 0x6e, 0x00,
  0x0d, 0x00, 0x00, 0x00, 0x3c, 0x5b, 0x00, 0x00, 0x34, 0x5b, 0x00, 0x00,
  0x04, 0x5b, 0x00, 0x00, 0x6c, 0x5a, 0x00, 0x00, 0x1c, 0x01, 0x00, 0x00,
  0xec, 0x00, 0x00, 0x00, 0xcc, 0x00, 0x00, 0x00, 0xb4, 0x00, 0x00, 0x00,
  0xac, 0x00, 0x00, 0x00, 0xa4, 0x00, 0x00, 0x00, 0x9c, 0x00, 0x00, 0x00,
  0x7c, 0x00, 0x00, 0x00, 0x04, 0x00, 0x00, 0x00, 0x2e, 0xa5, 0xff, 0xff,
  0x04, 0x00, 0x00, 0x00, 0x68, 0x00, 0x00, 0x00, 0x10, 0x00, 0x00, 0x00,
  0x00, 0x00, 0x00, 0x00, 0x08, 0x00, 0x0e, 0x00, 0x08, 0x00, 0x04, 0x00,
  0x08, 0x00, 0x00, 0x00, 0x14, 0x00, 0x00, 0x00, 0x2c, 0x00, 0x00, 0x00,
  0x00, 0x00, 0x0a, 0x00, 0x0c, 0x00, 0x08, 0x00, 0x00, 0x00, 0x07, 0x00,
  0x0a, 0x00, 0x00, 0x00, 0x00, 0x00, 0x00, 0x01, 0x04, 0x00, 0x00, 0x00,
  0x00, 0x00, 0x00, 0x00, 0x0c, 0x00, 0x18, 0x00, 0x14, 0x00, 0x10, 0x00,
  0x0c, 0x00, 0x04, 0x00, 0x0c, 0x00, 0x00, 0x00, 0x54, 0x49, 0xac, 0xd2,
  0x31, 0x3b, 0xe3, 0xa3, 0x03, 0x00, 0x00, 0x00, 0x02, 0x00, 0x00, 0x00,
  0x04, 0x00, 0x00, 0x00, 0x06, 0x00, 0x00, 0x00, 0x32, 0x2e, 0x31, 0x38,
  0x2e, 0x30, 0x00, 0x00, 0xa2, 0xa5, 0xff, 0xff, 0x04, 0x00, 0x00, 0x00,
  0x10, 0x00, 0x00, 0x00, 0x31, 0x2e, 0x35, 0x2e, 0x30, 0x00, 0x00, 0x00,
  0x00, 0x00, 0x00, 0x00, 0x00, 0x00, 0x00, 0x00, 0x20, 0xa1, 0xff, 0xff,
  0x24, 0xa1, 0xff, 0xff, 0x28, 0xa1, 0xff, 0xff, 0xca, 0xa5, 0xff, 0xff,
  0x04, 0x00, 0x00, 0x00, 0x08, 0x00, 0x00, 0x00, 0x95, 0x8e, 0x3c, 0x3e,
  0x48, 0xd5, 0xd4, 0x3f, 0xde, 0xa5, 0xff, 0xff, 0x04, 0x00, 0x00, 0x00,
  0x10, 0x00, 0x00, 0x00, 0xb6, 0x1e, 0x5e, 0xbe, 0x1b, 0x79, 0xd6, 0x3f,
  0x44, 0x08, 0x8b, 0xbd, 0x26, 0x6b, 0x2d, 0xbe, 0xfa, 0xa5, 0xff, 0xff,
  0x04, 0x00, 0x00, 0x00, 0x20, 0x00, 0x00, 0x00, 0x90, 0x46, 0x4a, 0xbb,
  0x1e, 0xb6, 0x02, 0xbd, 0x90, 0x73, 0xa9, 0x3c, 0xcc, 0x51, 0x5a, 0xbc,
  0x07, 0x73, 0x30, 0xbe, 0x60, 0x32, 0xbc, 0xbc, 0x36, 0x44, 0x74, 0x3c,
  0xc6, 0xa2, 0x29, 0xbb, 0x26, 0xa6, 0xff, 0xff, 0x04, 0x00, 0x00, 0x00,
  0x40, 0x59, 0x00, 0x00, 0xad, 0xee, 0x04, 0xbd, 0xc2, 0xc7, 0xa6, 0xba,
  0xb7, 0x91, 0x0d, 0x3c, 0xdf, 0x9f, 0xd4, 0xbb, 0xc3, 0x3f, 0xbd, 0xbc,
  0x8c, 0x81, 0x13, 0xbd, 0x9a, 0x7d, 0xb3, 0x3b, 0xc9, 0xa1, 0x61, 0x3c,
  0xa9, 0x42, 0xcb, 0xbc, 0x87, 0x07, 0x99, 0xbc, 0xc0, 0xb1, 0x74, 0x3c,
  0x46, 0x9d, 0xae, 0x3b, 0x5f, 0x5f, 0x0b, 0xbd, 0x5c, 0xd3, 0x9b, 0x3c,
  0x25, 0x03, 0xe3, 0x3c, 0x6a, 0xec, 0xa2, 0xbc, 0x62, 0x71, 0xe0, 0x3b,
  0x51, 0x19, 0x73, 0x3c, 0xaf, 0x6f, 0x0e, 0xb9, 0x4e, 0x44, 0x02, 0xbc,
  0x2f, 0x3f, 0xe8, 0x3c, 0x7d, 0x73, 0x39, 0xbc, 0x53, 0x7a, 0xed, 0x3c,
  0x4d, 0x43, 0x0b, 0x3d, 0x6b, 0x6d, 0x18, 0xbd, 0xae, 0xbf, 0x88, 0x3c,
  0x0b, 0x2c, 0xac, 0x3c, 0x81, 0x39, 0x06, 0x3d, 0xb3, 0xfd, 0x54, 0xbb,
  0x9c, 0x39, 0xc9, 0x3c, 0xab, 0x23, 0xec, 0xbc, 0x72, 0xb6, 0xb7, 0xbc,
  0x64, 0xc5, 0x82, 0xbc, 0x33, 0x47, 0x2d, 0xbc, 0xed, 0x39, 0xff, 0xba,
  0x02, 0x28, 0x4b, 0x3c, 0x5b, 0xd8, 0x4e, 0x3a, 0xf9, 0x44, 0x48, 0x3b,
  0xed, 0x0e, 0x99, 0x3b, 0x9c, 0xf4, 0x9f, 0xbc, 0xd6, 0x01, 0xe9, 0x3b,
  0x4d, 0x1a, 0x73, 0x3c, 0xce, 0xc8, 0x04, 0xbd, 0x09, 0x57, 0x99, 0x3c,
  0xb5, 0x4d, 0xa1, 0x3c, 0x9d, 0x39, 0x05, 0xbd, 0x2c, 0x74, 0xa4, 0x3b,
  0x2a, 0xb1, 0x57, 0x3c, 0x70, 0xf7, 0xf3, 0x3c, 0xa1, 0xb2, 0x9c, 0x3c,
  0x42, 0x74, 0x7c, 0x3c, 0x2a, 0x04, 0x0a, 0xbd, 0x73, 0x78, 0x9c, 0x3c,
  0xeb, 0x12, 0x0c, 0x3d, 0x7e, 0xba, 0x13, 0x3d, 0x8d, 0xad, 0xaf, 0x3c,
  0x93, 0xc4, 0xf0, 0xbc, 0xdf, 0x6b, 0x48, 0x3c, 0x41, 0x67, 0x01, 0xbd,
  0x15, 0x59, 0xe8, 0x3b, 0x62, 0x86, 0xd7, 0xbb, 0xf6, 0x0a, 0xfd, 0xbc,
  0x9c, 0xea, 0x01, 0xbd, 0x30, 0x33, 0x06, 0x3b, 0xa0, 0x85, 0xf3, 0x3c,
  0xb4, 0x1a, 0x8f, 0xbc, 0xbc, 0x18, 0x15, 0xbd, 0x2c, 0x3d, 0xb5, 0xbc,
  0x2d, 0xef, 0x53, 0x3c, 0xae, 0xeb, 0xfe, 0xbb, 0x62, 0xfb, 0x0e, 0xbd,
  0xcc, 0x80, 0x94, 0xbb, 0x4e, 0x9f, 0x74, 0xbc, 0xb6, 0x41, 0xe3, 0x3c,
  0x5e, 0xed, 0x87, 0xbc, 0x37, 0x9c, 0x95, 0xbc, 0xb8, 0x20, 0x66, 0x3c,
  0x1c, 0x4a, 0xcd, 0xbc, 0xe6, 0xb3, 0xe5, 0xbb, 0x40, 0x93, 0x63, 0xbb,
  0x0e, 0xe5, 0x09, 0x3d, 0xa8, 0xa2, 0x5d, 0x3b, 0x83, 0xce, 0x5b, 0xbb,
  0xc8, 0x73, 0x35, 0xbc, 0xc8, 0x56, 0x8d, 0x3c, 0xbf, 0x2c, 0xc8, 0x3b,
  0xe6, 0xbf, 0x91, 0x3a, 0xf2, 0xd7, 0xfb, 0xbc, 0xd4, 0x53, 0x15, 0xbd,
  0x1f, 0xc9, 0x27, 0x3b, 0x02, 0x8b, 0x07, 0xbd, 0xbd, 0x99, 0xce, 0x3c,
  0x06, 0xa0, 0x22, 0x3b, 0xba, 0x55, 0x58, 0x3b, 0xa8, 0xaf, 0xce, 0x3c,
  0xda, 0x32, 0x50, 0x3c, 0x81, 0xa8, 0x94, 0x3c, 0xf9, 0x19, 0xed, 0x3b,
  0xa8, 0xb8, 0x0a, 0xbd, 0x97, 0x68, 0x99, 0x3c, 0x31, 0xa9, 0x19, 0xbd,
  0xd3, 0x4b, 0x0d, 0x3d, 0x90, 0xb3, 0xb2, 0xbc, 0xee, 0x33, 0xd3, 0x3c,
  0x8f, 0x1e, 0x31, 0x3a, 0xc7, 0x5a, 0x08, 0x3a, 0xd9, 0x83, 0x59, 0xbc,
  0x19, 0x19, 0xda, 0xbc, 0x9d, 0xae, 0xb9, 0xbc, 0x42, 0x96, 0x85, 0xbc,
  0xf1, 0x06, 0x54, 0x3c, 0xb4, 0xe5, 0x94, 0x3c, 0x66, 0xb1, 0xaf, 0x3c,
  0x6c, 0x33, 0x10, 0xbd, 0xca, 0xb5, 0x22, 0xbc, 0xb4, 0xb2, 0xd6, 0x3c,
  0x95, 0x49, 0xb9, 0xbc, 0x1c, 0x4d, 0xdf, 0xbc, 0x55, 0x3d, 0xbe, 0x3c,
  0x1d, 0xe9, 0x78, 0x3c, 0x77, 0xa7, 0x8e, 0xbc, 0x5b, 0x1b, 0xa4, 0xbc,
  0xad, 0xdd, 0x0b, 0xbd, 0x31, 0x27, 0x5b, 0x3b, 0x1d, 0x06, 0xac, 0x3c,
  0x88, 0xd8, 0xfc, 0xbc, 0x16, 0x16, 0x2f, 0x3b, 0x2d, 0x55, 0xb6, 0x3c,
  0x88, 0xb4, 0xe3, 0x3c, 0x33, 0x49, 0xba, 0x3c, 0x79, 0x3e, 0x96, 0x3c,
  0x80, 0x3d, 0x8b, 0xbc, 0xfe, 0xb5, 0xfb, 0x3b, 0xc1, 0x68, 0xbb, 0x3c,
  0xf2, 0xb2, 0x9f, 0xbc, 0xca, 0x03, 0xc9, 0x3c, 0xf1, 0x8c, 0x08, 0xba,
  0xe8, 0x0b, 0x1a, 0xbd, 0x7e, 0xd8, 0xf7, 0xbc, 0x02, 0xca, 0x4f, 0xbc,
  0xaa, 0xd8, 0x10, 0xbd, 0x11, 0x71, 0x02, 0x3d, 0xd3, 0xa5, 0x8e, 0xbc,
  0xc3, 0x73, 0xd3, 0xbb, 0xcc, 0xd2, 0x07, 0x3d, 0x6e, 0x21, 0x24, 0xbc,
  0x5a, 0xb5, 0xd3, 0x3c, 0x46, 0x1a, 0x07, 0xbd, 0x7e, 0x7f, 0xbd, 0xbb,
  0xef, 0x23, 0xaa, 0xbc, 0x40, 0x28, 0x9d, 0x3c, 0x9f, 0x55, 0xbe, 0x3b,
  0x45, 0xd2, 0x02, 0x3d, 0xc1, 0x39, 0x13, 0xbd, 0x40, 0xf0, 0x0e, 0xbc,
  0x18, 0xe6, 0xf2, 0x3b, 0x4b, 0x4a, 0x87, 0x3c, 0x5f, 0x82, 0x4b, 0x3c,
  0x8a, 0x33, 0x73, 0xbc, 0x07, 0xf0, 0xf7, 0x3c, 0x7c, 0xde, 0x5a, 0xbc,
  0x55, 0xf2, 0xe1, 0x3c, 0x7a, 0xc9, 0x18, 0xbd, 0x24, 0xfa, 0x01, 0x3d,
  0x08, 0xb3, 0x13, 0x3d, 0x01, 0xcc, 0xeb, 0xbc, 0x69, 0x08, 0xde, 0x3c,
  0x7f, 0x63, 0x12, 0x3c, 0xc8, 0x1b, 0x80, 0xba, 0xfd, 0x84, 0xa4, 0xbc,
  0x82, 0x25, 0x65, 0x3c, 0xb2, 0x64, 0x12, 0x3d, 0x9c, 0x30, 0x9d, 0x3b,
  0xff, 0x28, 0x11, 0x3d, 0x8f, 0xbc, 0x52, 0x3c, 0xa4, 0xdb, 0x7f, 0x3c,
  0xdd, 0x76, 0xfd, 0xbb, 0x3d, 0x1f, 0x78, 0x3c, 0xa8, 0xbc, 0xc4, 0xbc,
  0x44, 0xf7, 0x93, 0x3b, 0x0a, 0x4a, 0x04, 0xbc, 0x42, 0x94, 0x00, 0x3d,
  0x26, 0x2a, 0xb4, 0x3c, 0x21, 0xa4, 0xb1, 0x3c, 0x08, 0x9f, 0x7a, 0xbc,
  0x82, 0xd1, 0x1a, 0xbc, 0x0d, 0xc9, 0xb6, 0xbc, 0x5a, 0x6e, 0x9d, 0x3c,
  0xa2, 0xab, 0xe4, 0x3c, 0xa2, 0x2b, 0xc5, 0xbc, 0xb6, 0x8b, 0x87, 0xbb,
  0x86, 0x7f, 0xee, 0xbc, 0x11, 0x71, 0x17, 0xbd, 0x6c, 0x7a, 0x98, 0x3c,
  0xf4, 0x71, 0xeb, 0x3c, 0x3a, 0x64, 0x45, 0x3c, 0x53, 0x46, 0x8e, 0x3c,
  0xa2, 0x79, 0x11, 0xbb, 0xb2, 0xce, 0xfa, 0xbc, 0x49, 0x69, 0xdc, 0xbc,
  0x26, 0x69, 0x17, 0xbd, 0x5f, 0x1f, 0x81, 0x3c, 0x85, 0x19, 0x01, 0xbd,
  0x6d, 0x6d, 0x0a, 0xbd, 0xd4, 0x8f, 0xd7, 0x3c, 0xa0, 0xae, 0x31, 0x3c,
  0x36, 0x93, 0xc4, 0x3a, 0x5f, 0x5a, 0x11, 0xbd, 0x83, 0xdb, 0xd7, 0xbc,
  0xc4, 0x0d, 0x26, 0xbb, 0xc0, 0xbc, 0x03, 0xbd, 0xf2, 0x5e, 0x71, 0xbc,
  0xc9, 0xd1, 0x6e, 0xbc, 0x29, 0xc2, 0xad, 0xbc, 0xff, 0x74, 0xe3, 0x3b,
  0x2f, 0xa4, 0x83, 0xbc, 0xa7, 0x0f, 0xd5, 0xbc, 0x47, 0xd2, 0x3d, 0xbc,
  0x6b, 0x58, 0x01, 0x3c, 0x34, 0x70, 0x3f, 0x3c, 0x2e, 0xb3, 0xe4, 0x3c,
  0x40, 0x1f, 0x01, 0xbd, 0x2b, 0xe2, 0x00, 0x3d, 0x10, 0x41, 0xf8, 0x3c,
  0x9b, 0xf2, 0x09, 0xbc, 0x14, 0xe0, 0x62, 0x3c, 0xf9, 0xb4, 0xce, 0xbc,
  0xe1, 0xba, 0xc6, 0x3c, 0xf0, 0x6e, 0x22, 0xbc, 0x35, 0x22, 0x8c, 0xbc,
  0xc6, 0x40, 0xfc, 0xbc, 0x38, 0x69, 0xce, 0xbc, 0x85, 0x6c, 0x46, 0xbc,
  0x2d, 0x39, 0x86, 0x3c, 0x6a, 0x64, 0xa3, 0xbc, 0x7f, 0xb7, 0x7d, 0x3c,
  0x92, 0x44, 0x90, 0x3c, 0x07, 0x81, 0x17, 0xbd, 0x3d, 0x35, 0x93, 0x3c,
  0x5f, 0x15, 0x08, 0x3c, 0xd6, 0x2c, 0x5a, 0x3c, 0x0f, 0x60, 0x19, 0xbd,
  0x89, 0x39, 0xd0, 0x3a, 0x26, 0x95, 0x9f, 0x3c, 0xc0, 0x0f, 0x16, 0x39,
  0x97, 0x4a, 0xce, 0x3c, 0x2b, 0x32, 0xeb, 0xbc, 0x06, 0xc3, 0xfb, 0x3b,
  0x51, 0x0f, 0x0c, 0x3d, 0x9a, 0x4b, 0x88, 0xbc, 0xc0, 0xde, 0x1a, 0x3c,
  0xd4, 0xd0, 0x16, 0x3c, 0xc3, 0x4d, 0xc5, 0xbc, 0x78, 0x71, 0x7f, 0x3c,
  0x58, 0x30, 0x91, 0x3c, 0x11, 0x4c, 0x35, 0xbc, 0x1a, 0x05, 0xc9, 0x3c,
  0x13, 0x12, 0x69, 0xbb, 0xc2, 0xfe, 0x1e, 0x3c, 0x5e, 0xb3, 0xbb, 0x3c,
  0x27, 0x03, 0xd3, 0x3c, 0xf9, 0x1a, 0x82, 0xbc, 0x1a, 0x9a, 0x43, 0x3c,
  0x34, 0x22, 0x71, 0x3b, 0x5c, 0x55, 0xa8, 0x3c, 0xd9, 0xaa, 0x6a, 0xbb,
  0x51, 0x16, 0x30, 0x3c, 0x70, 0x99, 0x14, 0x3d, 0x48, 0xd7, 0xbc, 0x3c,
  0xf1, 0x67, 0x8d, 0x3c, 0x39, 0x96, 0x06, 0x3d, 0xd1, 0xf6, 0xa1, 0x3c,
  0xa7, 0xe8, 0x97, 0xbc, 0x7c, 0xb3, 0xa7, 0x3c, 0xf0, 0xe3, 0x11, 0x3d,
  0x19, 0xa2, 0x11, 0x3d, 0xb0, 0x11, 0x9d, 0xbc, 0x1c, 0xfc, 0x1d, 0xbd,
  0xf6, 0x33, 0x26, 0xbc, 0x96, 0x50, 0x10, 0x3d, 0x8c, 0x30, 0x5c, 0x3c,
  0x3c, 0x03, 0xc9, 0x3c, 0x42, 0x86, 0x71, 0x3c, 0x23, 0x04, 0x94, 0x3c,
  0x8a, 0x1e, 0x0b, 0x3d, 0xc1, 0xc2, 0x0d, 0xbc, 0x7e, 0x24, 0x05, 0x3c,
  0x65, 0xeb, 0xb8, 0x3c, 0x8e, 0x57, 0x15, 0xbd, 0xa5, 0x9b, 0xc3, 0x3b,
  0x91, 0xe2, 0x14, 0x3c, 0x6e, 0xd2, 0xdb, 0xbc, 0x00, 0x00, 0x43, 0xbc,
  0x6d, 0xc9, 0x11, 0x3c, 0x9b, 0xc2, 0x0c, 0x3c, 0x8e, 0x69, 0xbf, 0xbb,
  0x8e, 0xbb, 0xa8, 0xbc, 0x57, 0xf2, 0xe6, 0x3c, 0xcc, 0xfa, 0xd6, 0xbb,
  0x06, 0x55, 0xc8, 0xbc, 0x2c, 0x12, 0x2e, 0xbc, 0x6c, 0xfe, 0x70, 0x3c,
  0x89, 0x17, 0xb7, 0xbb, 0x5b, 0x81, 0xca, 0xba, 0x8c, 0xdc, 0x23, 0x3c,
  0x01, 0x7f, 0xe9, 0x3c, 0x40, 0x4a, 0x08, 0x3c, 0xef, 0x98, 0xdb, 0xbc,
  0x51, 0xf9, 0x8e, 0x3c, 0x14, 0xca, 0x82, 0xbc, 0x1e, 0x3a, 0x81, 0x3c,
  0x46, 0xb1, 0x05, 0x3d, 0xb1, 0xd0, 0xaa, 0x3c, 0x1f, 0x7d, 0x12, 0xbc,
  0xb6, 0x27, 0x35, 0x3c, 0xd1, 0xa6, 0xa9, 0xbc, 0xe9, 0x1a, 0xd2, 0x3c,
  0x33, 0xb6, 0x75, 0xbc, 0xfe, 0x79, 0xdd, 0x3c, 0x11, 0xd9, 0x02, 0xbc,
  0xac, 0x93, 0x0c, 0x3d, 0xbb, 0x63, 0x14, 0xbd, 0x27, 0x77, 0xcd, 0xbc,
  0x26, 0x9d, 0x14, 0x3d, 0x79, 0x18, 0xf9, 0xbc, 0x7f, 0x21, 0x1a, 0xbd,
  0xa3, 0x6e, 0xc0, 0xbc, 0xca, 0x75, 0xd3, 0xbc, 0xa0, 0x0d, 0xf3, 0x3c,
  0xf6, 0xc2, 0x6f, 0xba, 0x7a, 0x28, 0xfb, 0x3c, 0x38, 0x34, 0xf6, 0x3c,
  0x41, 0xd4, 0xa2, 0xba, 0xf7, 0xe6, 0x54, 0x3b, 0xbe, 0x68, 0xd0, 0x3c,
  0x0e, 0x47, 0x4a, 0x3c, 0xac, 0xe9, 0xb7, 0xbc, 0x47, 0x64, 0xfd, 0x3c,
  0xb4, 0x44, 0x88, 0xbc, 0x59, 0xbc, 0x28, 0x3c, 0x8f, 0x22, 0x7f, 0x3b,
  0x08, 0x17, 0x5c, 0xbc, 0x1a, 0xdc, 0x01, 0x3d, 0x50, 0x33, 0x4d, 0xbc,
  0xa1, 0x1e, 0x64, 0x3c, 0xfa, 0x9f, 0x48, 0x3b, 0x30, 0xfa, 0x0c, 0xbd,
  0x3b, 0xd1, 0xc6, 0x3c, 0x7f, 0xeb, 0x4c, 0xbb, 0x9a, 0xca, 0xde, 0x3c,
  0xad, 0x71, 0xdc, 0xbb, 0x35, 0xc9, 0x45, 0x3c, 0x0e, 0xa0, 0x0e, 0xbd,
  0x6d, 0xa3, 0x9e, 0x3c, 0xfb, 0x80, 0x80, 0x3b, 0xc6, 0x7d, 0xb9, 0xbc,
  0xb1, 0x4f, 0x0c, 0x3d, 0x2d, 0x10, 0x85, 0x3a, 0x6d, 0xcb, 0xef, 0x3c,
  0xe8, 0x86, 0x8c, 0x3c, 0xc3, 0xbc, 0x09, 0x3d, 0xca, 0x72, 0xf2, 0xbc,
  0x70, 0x2f, 0x14, 0xbd, 0x7d, 0x03, 0x52, 0xbc, 0x20, 0xf1, 0x10, 0xbc,
  0x4a, 0xc3, 0x01, 0xbd, 0x8e, 0x18, 0x44, 0x3c, 0x59, 0x76, 0xdb, 0xbc,
  0xfc, 0x02, 0x07, 0xbd, 0x2c, 0xf4, 0xd7, 0x3c, 0x7e, 0x94, 0xe0, 0xbc,
  0x28, 0xaa, 0x89, 0x3b, 0xd6, 0xf7, 0x95, 0x3c, 0xc1, 0x8e, 0xbb, 0xbc,
  0xad, 0x45, 0xd0, 0xbb, 0x59, 0x32, 0x8b, 0xbc, 0x32, 0xfb, 0x7a, 0xbb,
  0x7c, 0x84, 0x84, 0xbb, 0xff, 0x00, 0x13, 0x3d, 0x1c, 0x7a, 0xde, 0x3c,
  0xc6, 0x8d, 0x5a, 0xbc, 0x54, 0x0d, 0xf2, 0xbc, 0xd2, 0x5f, 0x8a, 0x3b,
  0xc4, 0x8b, 0xc5, 0xbb, 0x63, 0x01, 0xf8, 0xbc, 0x74, 0xf0, 0xae, 0xbc,
  0x1b, 0xb8, 0xee, 0x3a, 0x80, 0x43, 0x19, 0xbb, 0xc1, 0x72, 0x93, 0x3c,
  0x53, 0xa8, 0x10, 0x3d, 0xee, 0x22, 0xbc, 0xbc, 0x8f, 0x07, 0x06, 0xbd,
  0xb5, 0x7e, 0xac, 0x3c, 0x38, 0x71, 0x8c, 0x3c, 0x1b, 0x3b, 0xe7, 0xbc,
  0xf3, 0xda, 0x47, 0x3c, 0x1d, 0x07, 0xe1, 0xbc, 0xc6, 0xbe, 0xd3, 0x3c,
  0x49, 0x3c, 0xe2, 0xbc, 0x15, 0x45, 0x01, 0x3d, 0x97, 0xf1, 0x27, 0xbc,
  0x73, 0x65, 0x9a, 0xbc, 0x91, 0x3e, 0xea, 0x3c, 0xc4, 0xe5, 0x34, 0x3b,
  0xdf, 0xcf, 0x0b, 0xbd, 0xd2, 0xb0, 0x9c, 0xbc, 0x7f, 0xba, 0x13, 0xbd,
  0x9b, 0x12, 0x34, 0x3c, 0xa4, 0x3e, 0xa8, 0xbc, 0x64, 0x5d, 0x9f, 0x3c,
  0xe1, 0x93, 0x32, 0x3c, 0xc7, 0x4f, 0xf8, 0xbb, 0xbd, 0x04, 0xff, 0x3b,
  0xe8, 0xfe, 0x91, 0xbb, 0x88, 0x88, 0xe8, 0xbc, 0xb8, 0x3f, 0x9b, 0xbb,
  0xe7, 0x4e, 0xaa, 0xbc, 0x9d, 0x1e, 0xd3, 0x3c, 0xaf, 0xe0, 0xfb, 0x3c,
  0x26, 0x19, 0x9b, 0xbb, 0x23, 0xa8, 0xbf, 0xba, 0xf3, 0x0d, 0x17, 0x3d,
  0x37, 0x78, 0x15, 0x3d, 0x80, 0xbb, 0x41, 0xbc, 0x91, 0x26, 0xca, 0xbc,
  0x8f, 0x10, 0xd3, 0x3c, 0xdb, 0x3f, 0x17, 0x3b, 0x1b, 0x2b, 0x42, 0x3b,
  0xa5, 0xa3, 0x04, 0xbd, 0x32, 0xbb, 0x04, 0x3d, 0xba, 0x6b, 0x71, 0xbb,
  0x6c, 0x7c, 0x44, 0xbc, 0x53, 0xf5, 0x08, 0x3d, 0xc5, 0xc3, 0xeb, 0x3a,
  0xda, 0xa9, 0x1a, 0xbd, 0xa7, 0xaf, 0xf6, 0x3c, 0xa0, 0xf0, 0xde, 0x3c,
  0xeb, 0x4c, 0x0c, 0x3d, 0xbf, 0xd7, 0xa9, 0x3c, 0x3a, 0x1b, 0xce, 0x3c,
  0xc1, 0xbe, 0x4e, 0xbc, 0x0d, 0xd2, 0x15, 0xbd, 0x06, 0x08, 0xb6, 0xbc,
  0x13, 0x89, 0x01, 0x3a, 0xec, 0xec, 0x45, 0xbc, 0x52, 0x16, 0x0f, 0xbd,
  0x5f, 0x81, 0x09, 0xbd, 0x3c, 0x90, 0x96, 0xbb, 0xe7, 0x4d, 0x88, 0x3c,
  0xf4, 0xb6, 0xe1, 0xbc, 0x0f, 0x0f, 0x41, 0xbc, 0x8c, 0x70, 0x80, 0xba,
  0x85, 0x37, 0xd4, 0x3c, 0x39, 0x1b, 0x65, 0xbc, 0xba, 0x3f, 0x2f, 0x3c,
  0xe2, 0xff, 0x11, 0xbd, 0xb0, 0x47, 0x99, 0x3c, 0x73, 0x1a, 0x41, 0xbc,
  0x99, 0x02, 0x01, 0xbd, 0x6f, 0xdd, 0x02, 0x3c, 0x38, 0xb5, 0xc9, 0x3b,
  0x78, 0xb9, 0x29, 0xba, 0xca, 0xde, 0x37, 0xba, 0xae, 0x42, 0x0b, 0xbd,
  0x24, 0x84, 0x16, 0xbd, 0x6c, 0x6f, 0x74, 0x3c, 0x2c, 0x44, 0xeb, 0x3c,
  0x09, 0x36, 0x9c, 0x3c, 0xf5, 0x7a, 0xf8, 0xba, 0x66, 0xfc, 0x9f, 0x3c,
  0x89, 0xba, 0x3a, 0x3c, 0x39, 0x70, 0x9f, 0xbc, 0xa9, 0x54, 0x15, 0xbd,
  0x83, 0x6c, 0xa8, 0xb7, 0xb6, 0x72, 0x41, 0xba, 0xae, 0x0a, 0x16, 0x3c,
  0x73, 0x2d, 0xa6, 0xbc, 0x6c, 0x46, 0xba, 0x3c, 0xd8, 0xfc, 0x7a, 0xbc,
  0x55, 0x0c, 0x82, 0xbc, 0xac, 0x27, 0xe1, 0x3b, 0x46, 0x07, 0xa2, 0xbc,
  0xe3, 0x8f, 0xe4, 0xbb, 0x24, 0x54, 0x42, 0x3c, 0x81, 0x76, 0x03, 0x3c,
  0x71, 0xc7, 0xc0, 0xbc, 0x75, 0xbf, 0xa5, 0xbc, 0xb5, 0x38, 0xfd, 0x3b,
  0xc7, 0xe3, 0xcf, 0xbc, 0x3c, 0x42, 0x4d, 0x3c, 0xdd, 0x82, 0x22, 0xba,
  0xd9, 0xb7, 0xd4, 0x3c, 0x1b, 0xcb, 0x0a, 0xbd, 0xdb, 0xd0, 0xfe, 0xbc,
  0xa7, 0x71, 0x21, 0x3c, 0x7f, 0x9d, 0x6c, 0xbc, 0x67, 0xcb, 0xbb, 0xbc,
  0x00, 0x13, 0xf8, 0xbc, 0xbb, 0x48, 0xe4, 0xbc, 0x82, 0x80, 0x04, 0x3d,
  0xd1, 0xe9, 0x06, 0x3d, 0xcc, 0x89, 0x1a, 0xbd, 0xd2, 0x74, 0x05, 0xbd,
  0xa6, 0xf0, 0xc2, 0xba, 0x50, 0xff, 0xdd, 0xb9, 0x62, 0x67, 0xff, 0xbc,
  0xcf, 0xdd, 0xc2, 0xbc, 0xbb, 0xa2, 0x83, 0x3b, 0xf1, 0x85, 0xe8, 0xbc,
  0x94, 0x96, 0x66, 0xbc, 0x34, 0xcc, 0x6b, 0x3c, 0x37, 0xdf, 0x02, 0x3d,
  0xf3, 0x17, 0x89, 0x3b, 0xb9, 0x62, 0xe0, 0x3c, 0x1c, 0xea, 0x05, 0x3d,
  0xe5, 0xd0, 0xd1, 0x3b, 0xeb, 0x85, 0x03, 0x3d, 0xcd, 0xcb, 0xeb, 0x3c,
  0x3d, 0xeb, 0x83, 0x3c, 0xf1, 0x94, 0x89, 0xbc, 0xfd, 0xa9, 0x5e, 0xbc,
  0x94, 0xc0, 0x05, 0xbd, 0x1e, 0x72, 0x9f, 0x3c, 0x1b, 0x21, 0x99, 0x3c,
  0x4e, 0xd7, 0x00, 0x3d, 0xfd, 0x0b, 0x67, 0x3c, 0x79, 0x9b, 0x56, 0x39,
  0x9a, 0x14, 0x84, 0x3c, 0xa1, 0xf9, 0x6b, 0x3c, 0xf2, 0x50, 0x4e, 0x3c,
  0x68, 0x58, 0x09, 0x3a, 0x2f, 0x15, 0xc9, 0x3c, 0xf5, 0x80, 0xe3, 0x3c,
  0x74, 0xd2, 0x43, 0xbb, 0x1c, 0xeb, 0x6c, 0xbc, 0x9d, 0x34, 0x09, 0xbd,
  0xf8, 0x9f, 0xdd, 0xbc, 0x85, 0x1c, 0x88, 0x3a, 0x1c, 0x1d, 0x9e, 0x3c,
  0x73, 0xf3, 0x9e, 0x3b, 0xb2, 0x82, 0x0e, 0x3d, 0x93, 0x2f, 0x5e, 0xbc,
  0x54, 0x18, 0x94, 0xbc, 0x54, 0x0d, 0xdd, 0xbb, 0x85, 0x86, 0xf8, 0xbc,
  0x48, 0x00, 0x31, 0x3b, 0x90, 0x02, 0x0b, 0xbd, 0x27, 0x5c, 0x32, 0xbc,
  0xf9, 0xd7, 0x9e, 0x3c, 0xb6, 0x8b, 0x01, 0xbd, 0xe7, 0x43, 0xfb, 0xbb,
  0xed, 0x14, 0x55, 0x3c, 0x39, 0xbe, 0x40, 0x3c, 0x67, 0xa5, 0x81, 0x3c,
  0x1d, 0x6f, 0xa3, 0xbc, 0x6d, 0xb6, 0x08, 0xbd, 0x08, 0x6d, 0xca, 0x3c,
  0x22, 0xf3, 0x4e, 0x3c, 0x25, 0x81, 0xeb, 0xbc, 0x4f, 0xb7, 0x0f, 0xbd,
  0x0a, 0x58, 0xde, 0x3b, 0xb7, 0x5b, 0x01, 0xbd, 0x5e, 0xe4, 0xf6, 0xbc,
  0xd7, 0x63, 0x10, 0xbd, 0x03, 0x9b, 0xf9, 0xbc, 0xf8, 0x77, 0xb7, 0xbc,
  0xf0, 0xf8, 0x2d, 0x3c, 0x16, 0x55, 0xc1, 0x3c, 0xda, 0x63, 0xef, 0xbc,
  0x57, 0x8a, 0xff, 0xbc, 0x4b, 0x71, 0xb7, 0xbc, 0x5c, 0x6f, 0x6c, 0xbc,
  0x6a, 0x30, 0xd7, 0x3c, 0x67, 0x05, 0xb0, 0xbc, 0x35, 0xa4, 0xea, 0xbb,
  0xfa, 0x6c, 0x08, 0x3d, 0x57, 0xd0, 0x34, 0x3c, 0x03, 0x9d, 0x6c, 0xbb,
  0x18, 0x72, 0xca, 0xbb, 0xf0, 0xf9, 0xbc, 0xbc, 0xba, 0x55, 0x05, 0xbd,
  0x86, 0x2f, 0x08, 0x3d, 0x64, 0xa5, 0xfa, 0xbc, 0xdd, 0x4d, 0x90, 0x3c,
  0x70, 0x1c, 0x0d, 0x3c, 0xec, 0x22, 0xc5, 0x3c, 0xb1, 0x52, 0x01, 0x3c,
  0xdf, 0x3a, 0xec, 0xbc, 0x00, 0x59, 0xc7, 0xbc, 0xa3, 0xc4, 0x7e, 0x3b,
  0x19, 0x08, 0xec, 0xbc, 0x55, 0x6a, 0x05, 0x3d, 0xbf, 0x62, 0x44, 0x3a,
  0x1a, 0xc2, 0xe9, 0xbc, 0xce, 0xba, 0x1b, 0xbd, 0xb7, 0x17, 0xe0, 0x3c,
  0x9d, 0x4d, 0x0b, 0x3d, 0xa4, 0x06, 0xf2, 0x3c, 0x06, 0xf6, 0x29, 0xbc,
  0x6e, 0xb5, 0xd8, 0xbc, 0xb0, 0x26, 0xa2, 0xbc, 0x67, 0xa6, 0xe4, 0xbb,
  0x34, 0x2c, 0x2e, 0xbc, 0x12, 0x60, 0x04, 0xbd, 0x8e, 0x73, 0xe6, 0x3b,
  0x1f, 0x8f, 0xdf, 0xbb, 0xb2, 0xf1, 0xe5, 0xbb, 0xe9, 0xba, 0xcd, 0x3c,
  0xcc, 0xff, 0x10, 0x3d, 0x25, 0x03, 0x01, 0x3d, 0xb6, 0x51, 0xf2, 0xbb,
  0xab, 0x13, 0x73, 0x3c, 0x05, 0x07, 0x0a, 0xbd, 0x1e, 0xa9, 0x40, 0xbc,
  0xc6, 0x8f, 0x14, 0x3d, 0x94, 0xb4, 0xb7, 0xbc, 0xd5, 0x3a, 0xca, 0xbc,
  0x40, 0x9d, 0xb8, 0xbb, 0x25, 0x35, 0x01, 0x3d, 0x1d, 0x60, 0xa7, 0x39,
  0x2a, 0x00, 0x1c, 0xbd, 0x3d, 0x8f, 0xa5, 0x39, 0xba, 0x7b, 0xe3, 0x3c,
  0x27, 0xc7, 0x45, 0xba, 0x25, 0x3f, 0x10, 0xbd, 0x6a, 0xb9, 0x04, 0x3c,
  0xaf, 0x85, 0x07, 0xbd, 0xff, 0x17, 0x0d, 0xbd, 0xd5, 0xe2, 0x2a, 0xbc,
  0x89, 0x87, 0x0e, 0x3d, 0xb3, 0x66, 0xa1, 0x3b, 0x07, 0x8a, 0xb8, 0xbc,
  0x41, 0x8c, 0x88, 0x3c, 0xfc, 0x1c, 0xb6, 0x3c, 0xfc, 0x5e, 0x05, 0x3d,
  0x97, 0xca, 0x12, 0x3d, 0x13, 0x43, 0x9c, 0x3c, 0x14, 0x94, 0x0f, 0xbd,
  0xaa, 0x78, 0x4d, 0xbb, 0x0f, 0xb0, 0x2e, 0xbc, 0xd0, 0x18, 0xb3, 0xbc,
  0x83, 0xb1, 0x13, 0x3d, 0x78, 0xcd, 0xc5, 0x3c, 0xdb, 0x84, 0x94, 0xbc,
  0x21, 0x92, 0x6a, 0xbc, 0x63, 0x10, 0x91, 0xbc, 0x0f, 0xbe, 0xfc, 0x3c,
  0xa7, 0xdd, 0xd0, 0xbc, 0x80, 0xea, 0x41, 0xbb, 0x57, 0x84, 0x9b, 0x3c,
  0xca, 0x63, 0xde, 0x3c, 0xa9, 0x0a, 0x75, 0x3b, 0xc8, 0x32, 0x25, 0x3c,
  0x96, 0x2d, 0xc7, 0x3c, 0xf5, 0x86, 0x78, 0xbb, 0x50, 0x75, 0xc6, 0xbc,
  0xe6, 0xda, 0x1b, 0xbd, 0xd9, 0x7e, 0x16, 0x3d, 0x6e, 0x51, 0xb4, 0x3b,
  0xb3, 0x5a, 0xac, 0x3c, 0x53, 0xc8, 0x5b, 0x3c, 0xc8, 0x93, 0x8a, 0x3b,
  0x79, 0x16, 0x86, 0x3c, 0xba, 0x1b, 0x87, 0xbc, 0x32, 0x77, 0x07, 0xbd,
  0xa1, 0xab, 0x63, 0xbc, 0x03, 0xab, 0x11, 0x3d, 0xb2, 0x54, 0x0a, 0x3d,
  0xe1, 0xec, 0xb4, 0x3c, 0xd7, 0x0f, 0xef, 0xba, 0x15, 0x4b, 0x0b, 0x3c,
  0x68, 0x36, 0xfa, 0xbc, 0xb9, 0xd6, 0xf8, 0x3c, 0x5d, 0x0b, 0xed, 0x3c,
  0xce, 0x3e, 0x88, 0xbc, 0x65, 0xbe, 0x3e, 0xbc, 0x89, 0x14, 0x1a, 0xbc,
  0x48, 0xc7, 0xbf, 0x3b, 0x73, 0xb3, 0x4c, 0xbc, 0x8b, 0x0e, 0x01, 0x3d,
  0xcb, 0x5f, 0x67, 0x3c, 0xa5, 0x19, 0x65, 0x3c, 0xc3, 0xdf, 0x70, 0xbc,
  0xd1, 0xc3, 0xe9, 0x3c, 0x64, 0xba, 0x9c, 0xbc, 0xe6, 0xfe, 0x57, 0x3b,
  0x8a, 0x0b, 0x0b, 0x3d, 0x05, 0x69, 0x33, 0x3c, 0xf8, 0x71, 0x8f, 0xbc,
  0xa9, 0xed, 0xe4, 0xbc, 0x6b, 0x53, 0xdd, 0xbc, 0xf7, 0xd3, 0xb5, 0xbb,
  0x82, 0xe1, 0x5e, 0xbc, 0xd8, 0xc7, 0xea, 0x3c, 0x27, 0x12, 0x02, 0x3d,
  0x17, 0x31, 0xd4, 0xbb, 0x33, 0x3a, 0xf3, 0xbc, 0x90, 0x44, 0xb1, 0xbc,
  0x37, 0x64, 0x95, 0x3c, 0xb0, 0xd6, 0x8e, 0xba, 0x50, 0xfc, 0x0a, 0xbd,
  0x87, 0x84, 0xa7, 0x3c, 0xdd, 0x5f, 0xb3, 0x3b, 0x20, 0xc4, 0x10, 0x3d,
  0x78, 0xbb, 0xb2, 0x3c, 0xca, 0x76, 0xa8, 0x3c, 0x16, 0x1c, 0xf7, 0x3b,
  0x63, 0x61, 0x42, 0xbc, 0x08, 0x20, 0xe1, 0xbc, 0xf2, 0x7f, 0x0a, 0xbd,
  0x5d, 0x1d, 0xe4, 0x3c, 0x18, 0x1b, 0x02, 0x3d, 0xf6, 0x9d, 0xdd, 0xbc,
  0x05, 0x13, 0xda, 0x3c, 0xe6, 0xa2, 0xc0, 0xbc, 0x81, 0x97, 0x3f, 0x3b,
  0x94, 0x37, 0xe3, 0xbc, 0x98, 0xdd, 0x8b, 0x3c, 0x72, 0xc6, 0xba, 0x3c,
  0x49, 0x7d, 0xf1, 0x3c, 0x62, 0xfa, 0x03, 0x3d, 0x87, 0x0e, 0xea, 0x3c,
  0x97, 0x72, 0xea, 0x3c, 0xd4, 0x4e, 0x09, 0x3c, 0x33, 0x25, 0x04, 0xbd,
  0xda, 0x01, 0xa8, 0xbc, 0x41, 0xe2, 0x10, 0xbc, 0x87, 0x98, 0x87, 0xbc,
  0x88, 0x27, 0x9a, 0xbc, 0x79, 0x0b, 0x27, 0x3c, 0xd0, 0x8e, 0x46, 0x3c,
  0x09, 0x28, 0x0b, 0xbd, 0xd5, 0x09, 0x0e, 0xbd, 0x02, 0x22, 0xe9, 0xbc,
  0xa8, 0xf0, 0x16, 0xbd, 0x8e, 0x9c, 0x13, 0xbd, 0xbf, 0x83, 0xe0, 0xbc,
  0x4a, 0xef, 0x8a, 0x3c, 0x67, 0x18, 0xa3, 0xbc, 0x2a, 0xdd, 0x05, 0xbd,
  0xa5, 0xb0, 0xe7, 0xbb, 0x60, 0xf4, 0x5e, 0x3b, 0x35, 0x30, 0x0d, 0x3d,
  0xf8, 0xab, 0x14, 0xbd, 0xad, 0xbc, 0xa7, 0xbc, 0x55, 0x19, 0xe4, 0xbc,
  0x62, 0x25, 0x14, 0xbd, 0x3d, 0x54, 0x18, 0xbd, 0x0f, 0xc6, 0xa5, 0x3b,
  0x1c, 0x56, 0x1f, 0x3b, 0xbd, 0xf1, 0x9b, 0x3c, 0xe0, 0x8b, 0xb7, 0x3c,
  0x98, 0x00, 0x18, 0xbc, 0xf0, 0x91, 0xf0, 0xbc, 0x6c, 0x6a, 0xac, 0x3c,
  0xf8, 0x4a, 0x99, 0x3c, 0xfd, 0x92, 0x98, 0x3c, 0xd0, 0x2a, 0xf2, 0xbc,
  0x7a, 0x13, 0x43, 0xbb, 0xd7, 0xf7, 0x31, 0xbc, 0xf3, 0x37, 0xa9, 0xb9,
  0x37, 0x12, 0xb4, 0xbc, 0x2c, 0x90, 0x08, 0xbd, 0xf0, 0xcf, 0x6b, 0x3c,
  0xbd, 0x93, 0xbb, 0x3b, 0x11, 0x05, 0x43, 0xbc, 0x31, 0x15, 0x4e, 0x3c,
  0x1a, 0xaa, 0xe5, 0xbb, 0x63, 0x27, 0x9b, 0xbc, 0x9f, 0xc4, 0x0a, 0xbb,
  0xe0, 0xbc, 0x01, 0xbd, 0x36, 0xdf, 0x04, 0xbb, 0x52, 0xf2, 0xe3, 0x3c,
  0xbc, 0xb9, 0x0f, 0x3c, 0x08, 0x5c, 0xa4, 0xbc, 0x58, 0x2f, 0xe5, 0xbb,
  0x0f, 0xc9, 0xc6, 0xbc, 0x64, 0xf9, 0x0c, 0x3d, 0x16, 0x3e, 0x16, 0xbd,
  0xf5, 0x61, 0x2f, 0xbb, 0x7c, 0x55, 0x95, 0x3c, 0xe2, 0x39, 0x9c, 0x3b,
  0x09, 0x61, 0x3f, 0xbb, 0x5c, 0x61, 0xea, 0xbc, 0xca, 0x4c, 0x01, 0xbd,
  0xd1, 0x87, 0x05, 0x3d, 0x7b, 0x78, 0x2e, 0xbc, 0x1c, 0xd6, 0x4e, 0xbc,
  0x34, 0xce, 0x57, 0x3c, 0x2d, 0x87, 0xa6, 0x3c, 0x5e, 0x43, 0xa4, 0xbc,
  0xd7, 0x9f, 0x8b, 0xbc, 0xb1, 0xde, 0x05, 0xbd, 0xf3, 0x5e, 0x2b, 0x3c,
  0x0d, 0x6f, 0xe4, 0xbc, 0xda, 0xe3, 0x81, 0x3c, 0xd0, 0xf4, 0x8b, 0x3c,
  0xe6, 0x1e, 0xb4, 0xbc, 0x19, 0xa4, 0xec, 0x3c, 0x53, 0x25, 0x22, 0xbc,
  0x46, 0x54, 0x20, 0x3c, 0x64, 0xb3, 0x8a, 0x3c, 0xc8, 0x71, 0x08, 0x3d,
  0x7b, 0xbc, 0xc3, 0xbc, 0xff, 0xc4, 0xca, 0x3c, 0x2a, 0x36, 0xb5, 0xbb,
  0xe7, 0x79, 0xa0, 0xbb, 0x24, 0x28, 0x0f, 0x3d, 0x3b, 0x32, 0x1f, 0x3c,
  0x42, 0x1e, 0xd5, 0x3c, 0xed, 0x7e, 0xae, 0xbb, 0x03, 0x0c, 0xe0, 0xbc,
  0x14, 0xb9, 0x85, 0x3c, 0x32, 0xd1, 0x35, 0xbb, 0xf2, 0x0e, 0x19, 0x3b,
  0xf1, 0xd9, 0xf6, 0x3c, 0xe6, 0x0d, 0x98, 0xbc, 0x65, 0xd6, 0xe1, 0x3c,
  0x84, 0x02, 0x3f, 0x3c, 0x59, 0xd4, 0x8f, 0x3c, 0xcd, 0xf0, 0x98, 0xbc,
  0xa4, 0x16, 0x35, 0xbc, 0xdf, 0x5c, 0xe5, 0xbb, 0x91, 0xec, 0xe8, 0xbc,
  0x93, 0x69, 0xea, 0x3b, 0x08, 0x41, 0x16, 0xbd, 0x65, 0x65, 0x54, 0xbc,
  0xdf, 0x1b, 0x18, 0x3d, 0x5c, 0x2e, 0xa4, 0xba, 0x89, 0x42, 0xda, 0x3c,
  0x68, 0xe9, 0x11, 0xbd, 0x47, 0x06, 0x0c, 0x3c, 0x63, 0x2b, 0xbb, 0x3c,
  0xe1, 0x94, 0x02, 0x3d, 0x43, 0xb3, 0xdc, 0x3b, 0xff, 0x8b, 0xe2, 0x3c,
  0x31, 0x86, 0x96, 0xbc, 0x71, 0x13, 0x0d, 0x3c, 0xf9, 0x18, 0x8f, 0xbb,
  0x08, 0x82, 0x82, 0x3c, 0xcb, 0x19, 0xfb, 0x3c, 0x4a, 0x61, 0xc7, 0xbc,
  0x5a, 0x76, 0x19, 0xbd, 0x31, 0x9e, 0xfa, 0xbc, 0x4e, 0x71, 0x05, 0x3d,
  0x33, 0x84, 0x12, 0xbd, 0xe1, 0x27, 0x2a, 0xbc, 0x92, 0x17, 0x0e, 0xbd,
  0x7a, 0xe3, 0x6a, 0xbb, 0xb9, 0x1a, 0xe5, 0x3c, 0x40, 0x5a, 0x8c, 0x3c,
  0xac, 0x1a, 0xbf, 0x3c, 0x71, 0xc6, 0x06, 0x3d, 0xa7, 0x56, 0xce, 0xbc,
  0x3c, 0xe8, 0x0d, 0xbd, 0xa1, 0x60, 0xaf, 0x3c, 0x89, 0x8c, 0x90, 0x3c,
  0x3e, 0x8f, 0x50, 0x3b, 0x8b, 0x7e, 0x05, 0xbd, 0x7b, 0x10, 0x21, 0x3c,
  0x29, 0x92, 0xdc, 0x3c, 0x56, 0x44, 0x15, 0x3d, 0xd6, 0xb4, 0xc6, 0x3c,
  0x78, 0x43, 0x03, 0x3d, 0x62, 0xd4, 0xce, 0xbc, 0xb0, 0x22, 0xc1, 0xbc,
  0x07, 0x73, 0xc4, 0xbc, 0x1f, 0x1c, 0x6a, 0xbb, 0xc7, 0x6d, 0xd5, 0xbc,
  0xf3, 0xbb, 0x22, 0x3c, 0xb5, 0x53, 0x0b, 0x3d, 0x8b, 0x62, 0xbd, 0xbb,
  0x98, 0xad, 0xe7, 0x3c, 0xaa, 0x19, 0xe8, 0x3c, 0x7b, 0xed, 0xee, 0x3c,
  0x97, 0x00, 0x17, 0x3d, 0xb2, 0xb7, 0xba, 0xbc, 0x50, 0x90, 0x00, 0xbd,
  0x3e, 0xb8, 0x6e, 0xbc, 0x0c, 0x7c, 0x18, 0xbc, 0xbf, 0xd5, 0x14, 0x3c,
  0xec, 0xac, 0xa6, 0x3c, 0xfb, 0x4b, 0xd3, 0x3c, 0xb8, 0x4b, 0xac, 0x3c,
  0x21, 0x82, 0xe0, 0xbc, 0xbe, 0x1d, 0x12, 0x3d, 0x96, 0x1c, 0x0f, 0x3d,
  0x71, 0x17, 0xea, 0xbb, 0x7a, 0x19, 0x86, 0x3c, 0x52, 0xdf, 0xfa, 0x3c,
  0x87, 0x4e, 0x88, 0x3c, 0x4c, 0x59, 0xb8, 0xb8, 0x1e, 0x72, 0x13, 0xbd,
  0x05, 0xf7, 0x8b, 0x3c, 0x26, 0x12, 0x05, 0xbd, 0x5a, 0x76, 0xad, 0x3c,
  0x05, 0x91, 0xba, 0xbb, 0x69, 0xff, 0xff, 0x3b, 0x20, 0x9d, 0x9e, 0xbc,
  0x72, 0x55, 0x31, 0xbc, 0x6d, 0xb1, 0xa8, 0xbc, 0xc0, 0xa3, 0xed, 0xbc,
  0xfb, 0xe5, 0x8f, 0x3b, 0xb1, 0x27, 0xf2, 0xbc, 0x6c, 0x01, 0xf6, 0x3c,
  0x5a, 0x75, 0xac, 0x3b, 0xfd, 0xd9, 0x15, 0x3c, 0x1c, 0xa2, 0xa2, 0x3c,
  0xf3, 0xe5, 0x44, 0x3c, 0x61, 0x70, 0xed, 0x3c, 0xac, 0x1a, 0x05, 0x3c,
  0xe1, 0xc6, 0x5c, 0x3c, 0x57, 0x3d, 0xe5, 0x3c, 0x41, 0xb8, 0xb9, 0xbc,
  0x71, 0x1c, 0x10, 0xbd, 0x88, 0xb6, 0x0e, 0xbd, 0x84, 0x30, 0xc0, 0xbc,
  0x22, 0x53, 0x96, 0x3c, 0x87, 0x46, 0xc2, 0x3b, 0x6a, 0x21, 0x67, 0x3c,
  0x4e, 0x30, 0xc7, 0x3c, 0xde, 0xc7, 0x1c, 0x3b, 0x5e, 0xa4, 0xdd, 0xbc,
  0xbf, 0x73, 0x01, 0xbd, 0xd9, 0xb2, 0xb4, 0xbc, 0xe8, 0x36, 0xff, 0xbc,
  0x10, 0x02, 0x6a, 0xbc, 0x8d, 0xe6, 0x6b, 0x3c, 0x6b, 0xad, 0xa3, 0x3c,
  0x05, 0xba, 0x5d, 0x3c, 0x20, 0xf2, 0xd6, 0x3b, 0x88, 0x86, 0xcb, 0xbc,
  0xac, 0x62, 0x0e, 0xbc, 0x6b, 0x0e, 0x5e, 0x3c, 0xbc, 0x12, 0x14, 0x3d,
  0x9b, 0x08, 0x88, 0x3c, 0xa4, 0x5f, 0xc6, 0xbc, 0xdd, 0x5e, 0xca, 0xbc,
  0x10, 0x80, 0x0a, 0xbd, 0xf1, 0x31, 0x21, 0x3b, 0x1d, 0xb3, 0xd2, 0x3a,
  0x65, 0xc4, 0xdb, 0xbc, 0xb9, 0x29, 0xe7, 0xbc, 0x66, 0xea, 0xd5, 0xbc,
  0x44, 0x9a, 0x3f, 0xbc, 0xe2, 0x01, 0xa6, 0xbc, 0x6e, 0x33, 0x9b, 0xbb,
  0x06, 0xa5, 0xde, 0xbc, 0x30, 0xbc, 0xf9, 0xbc, 0x80, 0x1b, 0xd4, 0x3c,
  0xce, 0xa9, 0xef, 0x3c, 0xf3, 0x46, 0x09, 0x3d, 0x9e, 0x34, 0xa6, 0xba,
  0x81, 0x14, 0x92, 0xbb, 0x4d, 0x68, 0x81, 0xbc, 0xcc, 0x6d, 0xdd, 0xb9,
  0x7c, 0xaf, 0x36, 0x3b, 0x7d, 0x5d, 0xa0, 0xbc, 0x56, 0x16, 0x7e, 0xbc,
  0x48, 0xe2, 0xd4, 0xbc, 0xac, 0x60, 0x99, 0xbc, 0xad, 0x2b, 0x86, 0xbc,
  0xf7, 0xa3, 0x4b, 0xbc, 0xa6, 0xe6, 0xca, 0x3c, 0xdf, 0xfb, 0x28, 0xbc,
  0x71, 0xfa, 0xaf, 0x3b, 0xb9, 0xc2, 0xe2, 0x3c, 0xb2, 0xe2, 0x0a, 0xbd,
  0xc8, 0xde, 0x9b, 0x3c, 0xe0, 0xec, 0x06, 0xbc, 0xa1, 0x87, 0xb8, 0x3c,
  0x04, 0x8f, 0x0a, 0xbd, 0xd3, 0x1f, 0x64, 0x3c, 0xe9, 0x15, 0xbf, 0xbc,
  0xb5, 0x5f, 0x95, 0xbb, 0x54, 0x00, 0xec, 0x3c, 0x3e, 0x6e, 0xb5, 0x3c,
  0x45, 0x00, 0xb7, 0x3b, 0x53, 0x8b, 0xe9, 0x3b, 0x82, 0x82, 0x07, 0x3c,
  0x09, 0x8f, 0xe5, 0xbc, 0x9b, 0xae, 0x2c, 0xbc, 0x7a, 0x13, 0x04, 0x3c,
  0xcf, 0x3d, 0xf5, 0x3c, 0xd8, 0x2b, 0x02, 0x3d, 0xc5, 0x63, 0xa1, 0x3c,
  0x0a, 0xb3, 0x8b, 0x3b, 0xe1, 0xd8, 0x09, 0xbd, 0x11, 0xd7, 0x04, 0xbd,
  0x79, 0x31, 0x86, 0x3b, 0x2e, 0x34, 0x18, 0x3d, 0xe6, 0x56, 0xaf, 0xbb,
  0x77, 0x4e, 0x16, 0xbc, 0x98, 0xf2, 0xe9, 0x3c, 0x09, 0xc5, 0x72, 0xbc,
  0xe2, 0xf2, 0x40, 0xbc, 0x6c, 0x5c, 0x1e, 0x3c, 0xb8, 0x54, 0xdb, 0x3c,
  0xf6, 0x42, 0xb2, 0x3c, 0x31, 0x97, 0x8c, 0x3c, 0xe5, 0xc1, 0x08, 0xbd,
  0x86, 0x3d, 0xa6, 0x3c, 0xd9, 0x2a, 0xe8, 0xbc, 0x4c, 0x95, 0xfc, 0xbc,
  0x58, 0x6f, 0xa0, 0x3c, 0x6f, 0xe4, 0x07, 0x3d, 0xd2, 0x5e, 0x0b, 0x3d,
  0xae, 0x6a, 0xca, 0x3a, 0xe5, 0xec, 0xfe, 0x3c, 0x33, 0xc5, 0x92, 0xbc,
  0xbb, 0xc9, 0x08, 0xbd, 0x23, 0x0f, 0xad, 0xbb, 0x4c, 0x1a, 0x92, 0xbc,
  0x00, 0xac, 0x5b, 0xbc, 0x03, 0x73, 0x88, 0x3b, 0x2b, 0x2d, 0xe0, 0x3c,
  0xbb, 0x9d, 0xc0, 0x3c, 0x38, 0x0d, 0x10, 0xbd, 0xd7, 0xac, 0x50, 0x3c,
  0x88, 0x62, 0xfd, 0x3c, 0x7b, 0x42, 0xbb, 0x3b, 0xc0, 0x7c, 0x6e, 0xbc,
  0x57, 0xf9, 0x91, 0x3b, 0xd7, 0x6d, 0xc3, 0xbc, 0x9e, 0x0c, 0x6e, 0xbc,
  0xe0, 0x5b, 0xac, 0xbc, 0x6d, 0xc7, 0x16, 0xbd, 0xf1, 0x0f, 0x0e, 0xbd,
  0x1e, 0x2b, 0xe2, 0xbc, 0x49, 0xd7, 0xce, 0xbc, 0x72, 0x6b, 0x99, 0xbc,
  0x9e, 0x24, 0x0f, 0x3d, 0xb0, 0xab, 0xc0, 0x3c, 0x5e, 0xf7, 0xb6, 0x3c,
  0xd3, 0xc0, 0x09, 0x3c, 0x37, 0xd9, 0x70, 0xbc, 0x30, 0xa7, 0x99, 0x3c,
  0x09, 0x03, 0xb3, 0xbc, 0x24, 0x16, 0x17, 0x3c, 0x7d, 0x06, 0x11, 0x3c,
  0xa3, 0x15, 0x12, 0x3d, 0x6e, 0x41, 0x99, 0x3b, 0xd5, 0x35, 0xae, 0xbc,
  0xc4, 0x00, 0x98, 0x3b, 0x92, 0xef, 0xdd, 0x3c, 0x04, 0xe8, 0x17, 0x3c,
  0xb0, 0xdb, 0xb6, 0xbc, 0xca, 0xc5, 0x01, 0x3c, 0x4b, 0x41, 0x1e, 0xbc,
  0x77, 0xce, 0x8a, 0xbc, 0xdd, 0x35, 0x7e, 0xbb, 0x02, 0x91, 0x84, 0x3c,
  0xa9, 0x72, 0xfc, 0x3c, 0xcd, 0x40, 0x87, 0xbb, 0x59, 0xd0, 0x7e, 0x3c,
  0xe3, 0x04, 0xce, 0xbc, 0x82, 0xca, 0xbe, 0xbc, 0x42, 0x03, 0xe0, 0x3b,
  0x21, 0x56, 0x82, 0x3c, 0x9e, 0x1d, 0xf4, 0xbc, 0x88, 0x05, 0x7e, 0x3c,
  0xf5, 0x69, 0x02, 0xbc, 0xbc, 0xe9, 0x97, 0xbc, 0x48, 0xd9, 0xd5, 0x3c,
  0x25, 0xda, 0x3a, 0x3c, 0x24, 0xbb, 0xbb, 0xbc, 0xbd, 0xca, 0x86, 0x3c,
  0x14, 0x93, 0xc7, 0xbc, 0xf7, 0xf6, 0x0c, 0x3d, 0x14, 0xec, 0xe5, 0x3c,
  0x1d, 0x3d, 0xfd, 0x3c, 0x95, 0x45, 0xaf, 0x3c, 0x92, 0xaa, 0x5c, 0xbc,
  0xfe, 0x21, 0xef, 0x3b, 0x69, 0x0c, 0xbb, 0xbc, 0x01, 0x7e, 0xbf, 0x3c,
  0xc4, 0xa6, 0x6f, 0xbc, 0x87, 0xe4, 0x0f, 0xbc, 0xe3, 0xd7, 0xf8, 0xbc,
  0xa7, 0x5c, 0xb0, 0x3c, 0x51, 0xb7, 0x0e, 0x3d, 0x56, 0xc0, 0x03, 0x3d,
  0x1d, 0xb1, 0x89, 0xbc, 0xa7, 0xaa, 0x0c, 0x3d, 0xc3, 0xb1, 0x0c, 0x3d,
  0x05, 0xdd, 0xba, 0x3c, 0x2c, 0xa0, 0xd6, 0xbb, 0x57, 0xd3, 0xa9, 0x3b,
  0xbd, 0x91, 0x03, 0x3d, 0xc6, 0xf3, 0xb0, 0x3c, 0x97, 0x4b, 0x14, 0x3c,
  0x3f, 0x08, 0xa7, 0xbc, 0x99, 0x2d, 0x13, 0x3d, 0x30, 0x79, 0xc6, 0x3c,
  0x3f, 0x7a, 0x4a, 0xbc, 0x20, 0x04, 0xef, 0x3c, 0x7f, 0xea, 0x16, 0x3c,
  0xa8, 0x4d, 0x02, 0x3c, 0x82, 0x18, 0x58, 0x3b, 0x2e, 0x08, 0x16, 0xbc,
  0x32, 0x8a, 0xe1, 0x3c, 0x38, 0xff, 0xa7, 0x3c, 0x6b, 0x8f, 0xba, 0xbc,
  0x2c, 0x26, 0xee, 0xbc, 0x26, 0xdf, 0x10, 0xbc, 0xf9, 0xe7, 0xc1, 0xbc,
  0x12, 0x32, 0x14, 0x3d, 0xf5, 0xa0, 0x34, 0x3c, 0xa1, 0x5b, 0x8b, 0xbc,
  0x8c, 0x38, 0xed, 0x3b, 0x01, 0x0a, 0xc9, 0xbb, 0x53, 0x88, 0xbc, 0x3c,
  0x21, 0xcc, 0xc5, 0xbc, 0xc6, 0x8a, 0x06, 0x3c, 0x80, 0x76, 0xc5, 0xbb,
  0xe4, 0xf9, 0x0d, 0x3d, 0xb9, 0x46, 0xc7, 0xbc, 0xee, 0x08, 0x15, 0xbc,
  0x58, 0xd5, 0xc3, 0x3b, 0x27, 0xb0, 0xa3, 0x3b, 0x66, 0xb2, 0xaa, 0xbc,
  0x8b, 0x5b, 0x55, 0xbc, 0x8a, 0xfc, 0x67, 0xbc, 0xc1, 0x33, 0x8f, 0x3c,
  0xbc, 0x2f, 0x00, 0x3c, 0x6e, 0x05, 0xe2, 0x3c, 0x53, 0xd8, 0x96, 0x3c,
  0x3d, 0xae, 0x0e, 0x3d, 0x03, 0x42, 0xfe, 0xbc, 0x68, 0xf6, 0xb4, 0x3c,
  0x0f, 0x1e, 0xcb, 0x3b, 0xb8, 0x19, 0xc4, 0xba, 0x6a, 0xf4, 0xf3, 0x3c,
  0x6a, 0xfc, 0x15, 0xbd, 0x68, 0xa5, 0x81, 0xbc, 0x0a, 0x8d, 0xdc, 0xbc,
  0x86, 0xeb, 0x55, 0x3c, 0xd7, 0x59, 0xc8, 0xbc, 0xec, 0x97, 0x83, 0xbc,
  0xed, 0x25, 0xcc, 0x3b, 0x1d, 0x6b, 0x8b, 0xbc, 0x87, 0xfb, 0xea, 0x3c,
  0x33, 0xf4, 0x03, 0x3d, 0x3c, 0x26, 0x5d, 0xbc, 0xcd, 0xd2, 0x3a, 0xbc,
  0x2f, 0xb6, 0xdb, 0xbc, 0xc8, 0xb6, 0x72, 0xbb, 0xac, 0xd2, 0x78, 0x3c,
  0x97, 0xe2, 0xdd, 0xbb, 0xea, 0x24, 0xf3, 0x3c, 0xdd, 0xa8, 0xae, 0x3c,
  0xf1, 0xcd, 0x09, 0x3d, 0xfc, 0x6a, 0x85, 0xbc, 0xf9, 0x3b, 0xeb, 0x3c,
  0x64, 0x7e, 0xcb, 0x3c, 0x47, 0x26, 0xab, 0xbc, 0x42, 0xc9, 0xe2, 0xbc,
  0xdf, 0x5c, 0x00, 0xbd, 0xc0, 0x1d, 0x1b, 0x3a, 0x5e, 0xdf, 0xb1, 0x3c,
  0x67, 0xc8, 0x78, 0xbc, 0xc5, 0xc3, 0x87, 0xbc, 0xf3, 0x99, 0x51, 0xbc,
  0x88, 0x5c, 0xbe, 0xbc, 0xfe, 0x3f, 0x8a, 0x3c, 0xfa, 0x34, 0x15, 0x3d,
  0x40, 0xb3, 0xcb, 0xbc, 0xea, 0xc7, 0x34, 0x3c, 0x5d, 0x8d, 0xb8, 0x3b,
  0x1c, 0xc6, 0x9d, 0x3c, 0x42, 0xd8, 0x33, 0x3c, 0xbf, 0xf4, 0xd1, 0x3c,
  0xe0, 0xc7, 0x42, 0xbc, 0x4a, 0xb7, 0x0b, 0x3d, 0xf6, 0xd5, 0x49, 0xbc,
  0x99, 0xfc, 0x0f, 0xbd, 0x79, 0xb3, 0xa9, 0x3c, 0x2e, 0x52, 0x1a, 0xbc,
  0x36, 0xba, 0x8d, 0xbc, 0xab, 0x2d, 0x6f, 0x3c, 0xad, 0x2f, 0x82, 0x3c,
  0x0c, 0x55, 0x0b, 0xbd, 0xa5, 0xf8, 0xfc, 0x3c, 0xf3, 0x05, 0xcf, 0x3c,
  0x4c, 0xdb, 0x17, 0x3b, 0xf9, 0x0a, 0x59, 0xbc, 0x66, 0x7a, 0x0f, 0xbd,
  0x7f, 0x2e, 0xdf, 0x3c, 0xf4, 0x9d, 0x17, 0xbd, 0x2a, 0x99, 0x17, 0xbd,
  0x48, 0x1b, 0xd8, 0x3c, 0xd2, 0x82, 0x11, 0xbc, 0x04, 0x1c, 0xdc, 0xbc,
  0x75, 0x9a, 0xe4, 0x3c, 0x78, 0xf5, 0xba, 0x3b, 0x4c, 0xec, 0xd1, 0xbc,
  0x97, 0x3e, 0x60, 0x3c, 0xcd, 0x4c, 0x11, 0x3d, 0xff, 0x8c, 0x2e, 0xba,
  0x91, 0x74, 0xee, 0x3c, 0x1f, 0x11, 0xbd, 0xbc, 0x61, 0xf2, 0x0d, 0xbd,
  0x5b, 0x88, 0x8a, 0x3c, 0x33, 0x91, 0x02, 0x3c, 0xe1, 0xcd, 0x31, 0x3c,
  0x22, 0x12, 0xfa, 0x3b, 0x2c, 0x26, 0x06, 0xbd, 0xc5, 0x7d, 0x29, 0x3b,
  0x58, 0xad, 0x71, 0xbc, 0x54, 0xc2, 0xcf, 0xbb, 0xc4, 0x19, 0x91, 0xbc,
  0x3d, 0x56, 0xc5, 0x3c, 0xf3, 0xaf, 0xe0, 0xbc, 0xb7, 0x7e, 0xd0, 0x3c,
  0xea, 0x5e, 0x13, 0xbd, 0x90, 0x4e, 0x59, 0x3c, 0xc6, 0x73, 0x93, 0xbb,
  0x8e, 0x8e, 0xfe, 0x3b, 0xfc, 0x26, 0x91, 0xbc, 0xf2, 0x0b, 0x07, 0xbd,
  0x05, 0xbc, 0xa9, 0x3c, 0x28, 0xe0, 0x78, 0x3b, 0xc2, 0xa7, 0xff, 0xbc,
  0x8a, 0x42, 0x63, 0x3c, 0x01, 0x4a, 0x10, 0xbd, 0x3b, 0xb2, 0x7d, 0xbc,
  0xae, 0xcd, 0x38, 0x3c, 0x49, 0xb3, 0x9c, 0xbc, 0x16, 0xac, 0xfe, 0xbc,
  0x3f, 0x97, 0xd1, 0xbb, 0xfb, 0x47, 0x8f, 0x3c, 0x98, 0x7d, 0x17, 0x3d,
  0x69, 0x9a, 0xd2, 0xbc, 0x55, 0x9f, 0xa3, 0x3c, 0xde, 0x9f, 0x93, 0xbc,
  0xf3, 0x7b, 0xf7, 0xbb, 0x6e, 0xb8, 0xc4, 0x3b, 0xd0, 0xa8, 0xb8, 0x3c,
  0x28, 0x81, 0x0e, 0xbc, 0x6c, 0x2c, 0xaa, 0xbc, 0xc8, 0xfb, 0xae, 0xbb,
  0xd8, 0x2e, 0x01, 0xbc, 0xb7, 0x64, 0xc2, 0x3c, 0x30, 0xc8, 0xdb, 0x3a,
  0x1f, 0xa5, 0x1c, 0x3c, 0x43, 0xa2, 0x3a, 0xbb, 0xba, 0x81, 0x19, 0x3c,
  0x7e, 0x7f, 0x08, 0x3d, 0xbe, 0x5b, 0xb2, 0x3c, 0x3b, 0x68, 0x04, 0x3d,
  0x94, 0x6f, 0x93, 0x3c, 0x83, 0x36, 0xbc, 0xbc, 0xaf, 0xd4, 0xe4, 0x3c,
  0x2c, 0xbc, 0x93, 0x3c, 0x41, 0x57, 0x76, 0x3c, 0xfd, 0xfe, 0x35, 0xbc,
  0xa6, 0x5f, 0x88, 0x3c, 0x31, 0x2b, 0x89, 0xbc, 0x9e, 0xd5, 0x03, 0x3c,
  0x1b, 0x45, 0x26, 0x3c, 0x3a, 0x03, 0x00, 0xbb, 0x01, 0x7d, 0xce, 0xbc,
  0xe9, 0xfd, 0xe9, 0x3c, 0x3c, 0x35, 0x21, 0x3c, 0x1e, 0xc6, 0x0b, 0xbd,
  0x0f, 0x3d, 0x96, 0xbb, 0x2d, 0xd0, 0x09, 0x3d, 0x09, 0x33, 0xd1, 0xbc,
  0xdc, 0xcd, 0xd9, 0xbc, 0x5d, 0x25, 0xa7, 0x3c, 0xbd, 0xcc, 0xfd, 0xbb,
  0xa6, 0x68, 0xe3, 0x3c, 0x36, 0x1b, 0xc2, 0xbc, 0x09, 0x38, 0x08, 0xbd,
  0x1a, 0x6e, 0x01, 0x3d, 0x07, 0x44, 0x09, 0x3d, 0xa0, 0x99, 0x88, 0x3c,
  0xe5, 0xdb, 0xeb, 0x3a, 0x3d, 0x24, 0x80, 0xba, 0xe7, 0xae, 0x12, 0xbd,
  0x44, 0x93, 0xdb, 0xbc, 0x7e, 0x47, 0x09, 0x3b, 0xbc, 0xd8, 0xc1, 0x3c,
  0x7f, 0x62, 0xd4, 0x3c, 0xa9, 0x47, 0x59, 0x3c, 0x23, 0xc3, 0x70, 0x3c,
  0xb8, 0x27, 0xb7, 0xbb, 0x2c, 0x18, 0x02, 0xbc, 0xb1, 0xc0, 0xe5, 0xbb,
  0x37, 0x3f, 0xab, 0x3a, 0xa7, 0x2d, 0xa5, 0x3b, 0x15, 0xd2, 0x0a, 0xbd,
  0x0b, 0xae, 0x5a, 0x3c, 0x04, 0x99, 0xe3, 0x3c, 0xac, 0xdc, 0xd7, 0x3b,
  0x83, 0xde, 0x58, 0xbc, 0x0c, 0xa2, 0x56, 0xbc, 0x49, 0x31, 0x25, 0xbc,
  0x9a, 0x72, 0x93, 0xbc, 0x76, 0xed, 0x3a, 0x3c, 0xab, 0x8e, 0xaa, 0x3c,
  0x43, 0xe5, 0xbb, 0x3c, 0x64, 0xcf, 0x5f, 0xba, 0xc1, 0x66, 0x00, 0xbb,
  0x4a, 0x3a, 0x89, 0x3c, 0xb1, 0xe0, 0x31, 0x3c, 0x0b, 0xe2, 0xc6, 0x3c,
  0x74, 0xa6, 0x91, 0xbc, 0x16, 0x68, 0x45, 0x3a, 0x17, 0xc5, 0xa4, 0xba,
  0xc9, 0xf9, 0x4b, 0x3b, 0xa5, 0x10, 0x00, 0xbc, 0xb5, 0x37, 0xee, 0xbc,
  0xe7, 0xfc, 0xb8, 0x3c, 0x41, 0xb7, 0xba, 0xbc, 0x1b, 0xf6, 0x6b, 0xbc,
  0xf6, 0x4d, 0x7e, 0xbc, 0x7f, 0xc7, 0xe8, 0xbc, 0xda, 0xd7, 0xfb, 0xbc,
  0x9b, 0xb2, 0xb8, 0x3c, 0x16, 0xbd, 0x33, 0x3c, 0xe1, 0xe2, 0x12, 0x3d,
  0xe7, 0xec, 0x97, 0x3c, 0xbb, 0xf0, 0xbb, 0x3c, 0x2f, 0xf2, 0x88, 0x3c,
  0xcb, 0xd4, 0xf1, 0x3c, 0xf3, 0x8c, 0x8a, 0xbc, 0x62, 0x2d, 0x2b, 0xbb,
  0x24, 0x85, 0x00, 0xbd, 0x2e, 0x60, 0x01, 0xbd, 0xb1, 0xa7, 0xd7, 0xbc,
  0xdc, 0x54, 0xb4, 0xbc, 0xba, 0x82, 0xa8, 0x3c, 0x93, 0x5a, 0x95, 0xbc,
  0x34, 0x13, 0xae, 0x3b, 0x77, 0x76, 0x74, 0xbc, 0xd0, 0x07, 0x0d, 0xbc,
  0x2d, 0x4a, 0x88, 0xbb, 0xf3, 0xb0, 0x02, 0xbd, 0xa1, 0xe1, 0x63, 0x3c,
  0xc9, 0xdc, 0x66, 0x3c, 0x99, 0x02, 0xdc, 0x3c, 0xda, 0x0a, 0xf0, 0xbc,
  0x13, 0xc2, 0xea, 0xbc, 0x89, 0x1e, 0x1f, 0xbc, 0x5d, 0xa9, 0x04, 0xbc,
  0x3f, 0xb2, 0x6a, 0xbc, 0xe7, 0xb0, 0xe3, 0x3c, 0x09, 0x23, 0x8d, 0xbc,
  0x8d, 0x73, 0x76, 0x3b, 0x48, 0xb0, 0x05, 0xbc, 0xc4, 0x1c, 0xcb, 0x3c,
  0xea, 0xbb, 0x0a, 0xbc, 0xd7, 0xe6, 0x96, 0xbc, 0x0d, 0x75, 0x85, 0xbb,
  0xd5, 0x56, 0xc2, 0xba, 0xfb, 0x87, 0x14, 0xbb, 0xaa, 0xc6, 0xb8, 0x3c,
  0x25, 0xbe, 0x65, 0xbb, 0x80, 0xdf, 0xf4, 0x3b, 0x37, 0xfc, 0x9b, 0x3c,
  0xc5, 0x2c, 0x09, 0x3d, 0xaa, 0x25, 0x02, 0x3d, 0x10, 0x10, 0x85, 0x3b,
  0x92, 0x7a, 0x08, 0xbc, 0x7c, 0x09, 0x02, 0x3d, 0xfe, 0x0a, 0x93, 0x3a,
  0x25, 0xff, 0xee, 0x3c, 0xd3, 0x3b, 0xeb, 0xbb, 0xeb, 0xfd, 0x77, 0xbc,
  0x8d, 0x5e, 0xe9, 0xbc, 0x22, 0x8d, 0x8f, 0xbc, 0x90, 0x32, 0xd3, 0xbc,
  0x03, 0xe5, 0x67, 0xbb, 0xc2, 0xdc, 0x30, 0xbc, 0x15, 0xaf, 0x06, 0x3d,
  0x59, 0xfb, 0x00, 0x3d, 0xea, 0x99, 0x24, 0xbc, 0x77, 0x3a, 0x8c, 0xbc,
  0x99, 0x07, 0x0f, 0x3d, 0x24, 0x1b, 0xf8, 0x3c, 0x27, 0x7f, 0xa5, 0xbc,
  0xe9, 0xeb, 0x0a, 0x3b, 0xc0, 0x1b, 0x92, 0x3c, 0x13, 0x8a, 0x11, 0x38,
  0x87, 0x6d, 0x0f, 0x3c, 0x68, 0xef, 0x86, 0xbc, 0x75, 0x0b, 0x01, 0xbd,
  0x85, 0xf7, 0xbb, 0xbb, 0x89, 0x09, 0xd9, 0x3c, 0xfc, 0x45, 0xb1, 0xbc,
  0xf3, 0x5c, 0xe6, 0xbc, 0xf8, 0x52, 0x87, 0xbc, 0x35, 0x16, 0xdc, 0xbc,
  0xc7, 0x7d, 0x79, 0x3c, 0x8b, 0xff, 0xd1, 0xbb, 0x1d, 0x96, 0xb9, 0x3c,
  0xbf, 0xac, 0x19, 0xbd, 0xc0, 0xa2, 0xa8, 0x3c, 0xef, 0x67, 0x0f, 0x3d,
  0xa9, 0x7e, 0xaf, 0xbc, 0x45, 0xbb, 0x9f, 0x3c, 0x36, 0x30, 0xc9, 0x3c,
  0xf8, 0xc8, 0xbf, 0x3c, 0x88, 0x13, 0x6b, 0xba, 0xad, 0x79, 0xcd, 0xbc,
  0xdc, 0x6d, 0xb0, 0xbc, 0x08, 0x75, 0xf6, 0xbc, 0x53, 0x84, 0xfb, 0x3a,
  0xc2, 0xae, 0x95, 0x3c, 0xe3, 0x8b, 0x14, 0x3d, 0x33, 0x72, 0x5f, 0x3c,
  0xf5, 0x32, 0x95, 0xbb, 0xd5, 0xdd, 0x44, 0x3b, 0x16, 0x41, 0xe3, 0x3c,
  0x8d, 0x92, 0x52, 0x3c, 0xe8, 0x6b, 0xbe, 0xba, 0xc6, 0x2a, 0xee, 0xbc,
  0xb7, 0xb2, 0xd9, 0xbc, 0x8a, 0xac, 0x35, 0x3c, 0xff, 0x3f, 0xc6, 0xbc,
  0xd4, 0x8f, 0x19, 0x3c, 0x80, 0xee, 0xf0, 0xbc, 0x68, 0xd2, 0xfa, 0xbc,
  0xd3, 0xee, 0x06, 0xbd, 0x2f, 0xdd, 0x55, 0xbc, 0x93, 0xdd, 0x7f, 0x3c,
  0xcf, 0x05, 0xcf, 0xbc, 0xfc, 0x55, 0xe6, 0x3c, 0x04, 0x7f, 0xb3, 0xbc,
  0xd2, 0x75, 0x05, 0xbd, 0xa8, 0xf3, 0xae, 0xbb, 0xc4, 0x0a, 0xb3, 0x3c,
  0xe9, 0x24, 0xbf, 0xbc, 0xb0, 0xfa, 0xb4, 0xbb, 0x6c, 0x84, 0x35, 0x3c,
  0x00, 0xa3, 0xc3, 0x3c, 0x18, 0x78, 0xac, 0xbb, 0xb8, 0x76, 0x8e, 0xbc,
  0xde, 0xc4, 0x91, 0x3c, 0xb4, 0x8a, 0x29, 0x3c, 0xc6, 0xdc, 0x8f, 0x3c,
  0x23, 0x3a, 0xc2, 0xbc, 0x10, 0xda, 0xf8, 0x3c, 0xa0, 0x05, 0x8e, 0xba,
  0x2c, 0xc2, 0x59, 0x3c, 0x9a, 0x26, 0xd9, 0xbc, 0x56, 0xaa, 0xbf, 0x3c,
  0x61, 0x4f, 0xa5, 0xbc, 0x46, 0x0e, 0xc8, 0xbc, 0x7c, 0xbf, 0x0d, 0xbd,
  0xdc, 0xf1, 0xef, 0x3c, 0x6a, 0x2f, 0xdf, 0xbc, 0x6c, 0x61, 0xd9, 0xbb,
  0xc4, 0x80, 0x25, 0x3c, 0x56, 0x65, 0x5c, 0xbc, 0x81, 0x6f, 0xb4, 0xbc,
  0xb0, 0x92, 0xbb, 0x3b, 0x88, 0x62, 0xa6, 0x3b, 0x80, 0xe8, 0xb7, 0xbb,
  0x58, 0xa6, 0x0d, 0x3c, 0x30, 0x33, 0x06, 0x3b, 0xf8, 0xb8, 0xa9, 0xbb,
  0x70, 0x82, 0x09, 0x3b, 0xe2, 0x6c, 0x8e, 0x3c, 0x2e, 0xa4, 0xda, 0xbc,
  0x0f, 0x23, 0xa5, 0xbc, 0x08, 0xf3, 0xdf, 0x3b, 0x90, 0xdb, 0x15, 0x3b,
  0x77, 0x83, 0xad, 0xbc, 0xd2, 0x95, 0x21, 0xbc, 0x42, 0xe9, 0x13, 0x3d,
  0x00, 0x7d, 0x9a, 0xb9, 0x7a, 0xef, 0x98, 0x3c, 0x38, 0xe2, 0x96, 0x3b,
  0xc0, 0xcb, 0x5d, 0x3c, 0xc0, 0x24, 0x24, 0xbb, 0x38, 0xd9, 0xa1, 0x3b,
  0x72, 0xe3, 0x93, 0x3c, 0x82, 0xfa, 0x75, 0xbc, 0xec, 0x32, 0x05, 0xbd,
  0x0e, 0xc7, 0x20, 0xbc, 0x80, 0xf8, 0x45, 0xba, 0xf0, 0x01, 0xfa, 0x3c,
  0x9e, 0x6a, 0xde, 0xbc, 0xf6, 0xb2, 0x14, 0xbd, 0x46, 0x7c, 0xdd, 0xbc,
  0xc6, 0x8a, 0x2a, 0xbc, 0x39, 0xa7, 0xae, 0xbc, 0x70, 0x6a, 0x08, 0xbb,
  0x64, 0x7f, 0x8a, 0x3c, 0x5c, 0x10, 0xa1, 0xbc, 0x75, 0xbb, 0xa4, 0xbc,
  0x20, 0x7f, 0x8f, 0xba, 0x40, 0x2a, 0xe2, 0x3b, 0x16, 0xe5, 0x91, 0x3c,
  0x1a, 0x22, 0xb5, 0xbc, 0x54, 0x70, 0xc1, 0x3c, 0x03, 0x23, 0xa3, 0xbc,
  0x6a, 0x1a, 0x80, 0x3c, 0xac, 0xac, 0x08, 0x3c, 0xd4, 0x07, 0xab, 0x3c,
  0x0a, 0xe3, 0xb6, 0x3c, 0x30, 0xfc, 0x53, 0x3b, 0x38, 0x5e, 0x89, 0xbb,
  0x40, 0x97, 0xe6, 0xbb, 0xea, 0xab, 0x02, 0xbd, 0xdc, 0x44, 0xdb, 0x3c,
  0xb2, 0xc2, 0xc5, 0x3c, 0x04, 0x24, 0xea, 0xbb, 0xb8, 0xa0, 0x84, 0x3b,
  0xc0, 0x2f, 0x6e, 0x3a, 0xd0, 0xc1, 0xfc, 0x3b, 0x44, 0x64, 0xed, 0x3c,
  0xa0, 0xf6, 0x18, 0xbc, 0x6e, 0x2a, 0x8c, 0xbc, 0x12, 0xd1, 0xe3, 0xbc,
  0x60, 0x3b, 0x11, 0xbd, 0x70, 0x1c, 0x9b, 0x3c, 0x46, 0xea, 0xc9, 0x3c,
  0x50, 0xf2, 0xa7, 0xbc, 0xd5, 0xc2, 0x17, 0xbd, 0x78, 0xa5, 0xd8, 0x3b,
  0xd6, 0xb5, 0x22, 0xbc, 0xf0, 0xca, 0x14, 0x3b, 0x30, 0xa9, 0x53, 0xbc,
  0xd0, 0x89, 0x1a, 0x3c, 0x04, 0xb5, 0x02, 0x3c, 0x0d, 0x6a, 0x8d, 0xbc,
  0xb8, 0x13, 0xd3, 0x3c, 0x00, 0x30, 0x0f, 0xb7, 0x40, 0x90, 0xb2, 0xba,
  0x60, 0xf3, 0xab, 0x3b, 0x3a, 0x4e, 0xc2, 0xbc, 0xe0, 0x10, 0xd5, 0x3c,
  0x7c, 0xc4, 0x84, 0xbc, 0x60, 0xf6, 0x89, 0xba, 0x24, 0x91, 0x96, 0xbc,
  0x28, 0x00, 0x85, 0xbc, 0xfc, 0x1a, 0x5f, 0x3c, 0xda, 0x58, 0x14, 0x3d,
  0xf0, 0x9c, 0xcb, 0x3c, 0x28, 0xa4, 0x84, 0xbb, 0xee, 0x24, 0x8a, 0x3c,
  0x7c, 0xc9, 0x45, 0x3c, 0x84, 0x9a, 0xa1, 0x3c, 0x60, 0x3c, 0xac, 0xba,
  0xca, 0xf6, 0xa3, 0x3c, 0x56, 0x36, 0x09, 0xbc, 0xcd, 0x44, 0xa0, 0xbc,
  0x3a, 0x7a, 0xab, 0x3c, 0xb8, 0x5b, 0xfd, 0x3b, 0x90, 0xe0, 0x7f, 0x3c,
  0x56, 0x77, 0x43, 0xbc, 0x1a, 0x14, 0x0a, 0x3d, 0xd6, 0xaf, 0xfe, 0xbc,
  0x1e, 0x82, 0xa2, 0x3c, 0xb0, 0x95, 0x94, 0x3b, 0xfb, 0x28, 0xb0, 0xbc,
  0xf8, 0x80, 0x91, 0xbc, 0x78, 0x47, 0x7c, 0x3c, 0x82, 0x35, 0x14, 0x3d,
  0xea, 0xbd, 0x02, 0xbd, 0x40, 0x6e, 0x07, 0xbd, 0x65, 0xd0, 0xb4, 0xbc,
  0x00, 0x6e, 0xfc, 0x39, 0x04, 0x8a, 0x1d, 0xbc, 0xb8, 0x7f, 0xbf, 0xbc,
  0x90, 0x3d, 0x81, 0xbb, 0xc0, 0x15, 0x55, 0x3b, 0xfc, 0x43, 0x00, 0xbc,
  0x60, 0x29, 0x5d, 0xbc, 0x64, 0x10, 0x4a, 0x3c, 0x98, 0x7c, 0xf8, 0x3c,
  0x29, 0xf0, 0x10, 0xbd, 0x04, 0x32, 0x4c, 0x3c, 0xf8, 0x72, 0xeb, 0x3b,
  0x86, 0x1a, 0x71, 0xbc, 0xa4, 0x3f, 0x18, 0xbd, 0x6e, 0x30, 0x0d, 0x3d,
  0x16, 0xb8, 0xa7, 0x3c, 0xdb, 0xc2, 0x9a, 0xbc, 0x26, 0xec, 0x14, 0xbc,
  0x9d, 0x9f, 0xe7, 0xbc, 0xbc, 0x59, 0xd0, 0x3c, 0x20, 0x43, 0x14, 0xbc,
  0x89, 0xf2, 0x0e, 0xbd, 0x74, 0x41, 0x13, 0xbd, 0x60, 0xb3, 0x13, 0x3c,
  0x4e, 0x28, 0xb0, 0x3c, 0xd4, 0x43, 0xee, 0xbb, 0x97, 0x00, 0xc0, 0xbc,
  0x6b, 0xa4, 0xae, 0xbc, 0x9c, 0x85, 0xdc, 0xbc, 0x7c, 0x8f, 0x02, 0x3d,
  0x9e, 0x40, 0x89, 0x3c, 0xe8, 0xc4, 0xe8, 0x3c, 0x70, 0x36, 0xfe, 0x3c,
  0x48, 0xc6, 0x70, 0x3c, 0xd4, 0x85, 0xbf, 0x3c, 0xf0, 0xc6, 0x42, 0xbc,
  0xda, 0xda, 0xb5, 0xbc, 0xbf, 0xae, 0x08, 0xbd, 0x08, 0x3c, 0x84, 0xbb,
  0x56, 0x3d, 0xa7, 0x3c, 0xa0, 0xec, 0xe2, 0x3c, 0x87, 0x11, 0x94, 0xbc,
  0x80, 0x27, 0x4d, 0x3a, 0x84, 0x72, 0xa7, 0xbc, 0xd0, 0x21, 0xfa, 0x3b,
  0xad, 0xb0, 0xc3, 0xbc, 0x6c, 0x57, 0x22, 0x3c, 0x94, 0xf6, 0xe2, 0x3c,
  0xe8, 0x82, 0xdf, 0x3c, 0x52, 0x14, 0x7d, 0xbc, 0xc8, 0x22, 0xa1, 0xbc,
  0xb0, 0x0e, 0x46, 0xbb, 0x8c, 0x55, 0xc3, 0xbc, 0xf0, 0x62, 0x91, 0x3b,
  0xda, 0xff, 0x13, 0x3d, 0xb8, 0x81, 0xb0, 0x3b, 0xfe, 0xec, 0xdf, 0xbc,
  0x1c, 0xeb, 0xb0, 0xbc, 0x9f, 0x4c, 0x9d, 0xbc, 0x4c, 0xda, 0x13, 0xbc,
  0x80, 0xcd, 0xaa, 0xba, 0xb4, 0xc8, 0x0d, 0xbd, 0xd0, 0xd9, 0xd3, 0x3b,
  0xad, 0xc1, 0xdd, 0xbc, 0x7e, 0x68, 0x0f, 0xbc, 0xa0, 0xed, 0xb9, 0xbb,
  0x88, 0x90, 0xbe, 0xbb, 0x7c, 0xa5, 0xd8, 0x3c, 0xb8, 0xde, 0x0e, 0xbd,
  0x98, 0x0c, 0x01, 0x3d, 0xb0, 0xa8, 0xff, 0x3c, 0x56, 0xe7, 0x97, 0x3c,
  0x58, 0x7b, 0xe7, 0x3c, 0x24, 0xee, 0x6e, 0xbc, 0x7f, 0x79, 0xaa, 0xbc,
  0xb8, 0x3f, 0xa7, 0xbb, 0xef, 0x6e, 0xcd, 0xbc, 0x18, 0xde, 0x91, 0x3b,
  0x20, 0xa9, 0xfd, 0x3c, 0x9e, 0xcc, 0x15, 0xbd, 0x12, 0xd3, 0x11, 0x3d,
  0x34, 0x17, 0xe6, 0x3c, 0x20, 0xef, 0xe9, 0x3a, 0xa4, 0xbb, 0x66, 0xbc,
  0xe0, 0x6e, 0xca, 0x3a, 0x35, 0x00, 0x13, 0xbd, 0x4c, 0x25, 0x42, 0x3c,
  0xc9, 0xa3, 0x9d, 0xbc, 0x95, 0x4c, 0x10, 0xbd, 0x00, 0xd8, 0x60, 0xb8,
  0x06, 0x80, 0xae, 0x3c, 0xc4, 0x10, 0x31, 0x3c, 0x34, 0xb3, 0xa4, 0x3c,
  0x4e, 0xf8, 0x88, 0x3c, 0xc0, 0x79, 0x59, 0xbc, 0xac, 0x59, 0xeb, 0x3c,
  0x70, 0xf6, 0x79, 0x3c, 0xe0, 0x47, 0x2b, 0x3c, 0xe0, 0x00, 0x3a, 0xbb,
  0x60, 0xe2, 0x57, 0x3b, 0xe2, 0x8a, 0xb5, 0x3c, 0x70, 0xed, 0xf4, 0x3c,
  0x50, 0x74, 0xf0, 0x3c, 0xc8, 0xf4, 0x2c, 0x3c, 0xb6, 0x49, 0xee, 0xbc,
  0xec, 0x99, 0x3b, 0x3c, 0xcc, 0xd9, 0xba, 0x3c, 0xb4, 0x29, 0x45, 0x3c,
  0x39, 0x18, 0xe7, 0xbc, 0xf7, 0xa3, 0xa7, 0xbc, 0x74, 0xa5, 0x45, 0xbc,
  0x42, 0xaa, 0x03, 0xbc, 0x40, 0x67, 0x3c, 0xba, 0x16, 0x3b, 0x10, 0x3d,
  0xe3, 0xa0, 0x8b, 0xbc, 0x30, 0x65, 0xbb, 0xbb, 0x55, 0xdc, 0x08, 0xbd,
  0x00, 0xdf, 0xbc, 0xbb, 0x48, 0x35, 0x8b, 0x3b, 0x44, 0xa6, 0xb6, 0x3c,
  0x32, 0xc5, 0x8f, 0x3c, 0xf0, 0xd4, 0x1d, 0xbb, 0x45, 0xc2, 0x0b, 0xbd,
  0x96, 0x0a, 0xd6, 0xbc, 0x90, 0xf0, 0x0e, 0xbb, 0x1c, 0xe8, 0xd0, 0xbc,
  0x58, 0xda, 0xc2, 0x3b, 0x5d, 0x9b, 0xaa, 0xbc, 0xf0, 0xce, 0xb2, 0x3b,
  0x2c, 0x04, 0x30, 0xbc, 0x92, 0xf2, 0xcc, 0x3c, 0xaf, 0x6f, 0x0a, 0xbd,
  0xec, 0x21, 0xc2, 0x3c, 0xb4, 0xee, 0x09, 0xbc, 0xbf, 0x11, 0xa9, 0xbc,
  0x08, 0x57, 0xa8, 0x3b, 0x25, 0xdc, 0x9f, 0xbc, 0xfc, 0xe1, 0x00, 0x3d,
  0x80, 0xcd, 0x1d, 0x3b, 0x4b, 0x11, 0x93, 0xbc, 0x1f, 0x64, 0x8b, 0xbc,
  0xac, 0xc5, 0x18, 0xbd, 0x18, 0x34, 0x03, 0x3d, 0x7c, 0x97, 0x10, 0x3d,
  0xc0, 0x5c, 0x59, 0xba, 0x00, 0x0a, 0xb5, 0x39, 0x42, 0x28, 0x16, 0x3d,
  0x48, 0xbb, 0x73, 0xbc, 0x4c, 0xa4, 0x44, 0xbc, 0xac, 0x1e, 0x0d, 0x3c,
  0x13, 0x9c, 0xd1, 0xbc, 0x40, 0x4b, 0xdd, 0xbc, 0x00, 0x06, 0x0e, 0x3b,
  0x68, 0x11, 0xd1, 0x3c, 0x40, 0x85, 0x89, 0x3b, 0xe0, 0x1d, 0x1c, 0x3c,
  0x36, 0x17, 0xa7, 0xbc, 0xee, 0xed, 0xf8, 0xbc, 0x06, 0xfd, 0xbd, 0x3c,
  0x22, 0x3f, 0x15, 0x3d, 0xd8, 0x0a, 0x80, 0xbb, 0x8d, 0x45, 0x81, 0xbc,
  0x1e, 0x7a, 0xb0, 0xbc, 0x5a, 0x07, 0xde, 0xbc, 0xa0, 0x94, 0x9b, 0x3a,
  0x30, 0x83, 0xda, 0xbc, 0xbd, 0x48, 0x00, 0xbd, 0x37, 0x84, 0xc6, 0xbc,
  0xc0, 0xa3, 0x37, 0x3c, 0x62, 0x40, 0xc4, 0x3c, 0x74, 0x05, 0x0d, 0xbd,
  0x00, 0x80, 0x4e, 0x39, 0xc8, 0xaa, 0x92, 0x3c, 0x0c, 0x94, 0x20, 0x3c,
  0xa0, 0x94, 0xa5, 0x3b, 0x9e, 0xd7, 0x16, 0xbd, 0xab, 0xe5, 0xb7, 0xbc,
  0xa0, 0x61, 0xdf, 0x3c, 0x42, 0xc4, 0xee, 0xbc, 0x65, 0x61, 0x90, 0xbc,
  0x88, 0xc8, 0x02, 0x3c, 0x80, 0xda, 0x01, 0x3c, 0x4b, 0x10, 0x13, 0xbd,
  0x8c, 0x85, 0x18, 0x3c, 0x00, 0xb6, 0x16, 0xb9, 0x77, 0x32, 0x0f, 0xbd,
  0x48, 0x60, 0x5e, 0xbc, 0x74, 0xee, 0xce, 0xbc, 0xe8, 0x32, 0x2b, 0x3c,
  0x26, 0x13, 0x43, 0xbc, 0x44, 0xb2, 0x31, 0x3c, 0xef, 0x05, 0x95, 0xbc,
  0xf4, 0xc2, 0xf3, 0x3c, 0x94, 0xbe, 0xe4, 0x3c, 0xdc, 0x2b, 0xe5, 0x3c,
  0x58, 0x55, 0x0b, 0x3c, 0x18, 0xc9, 0x0d, 0xbd, 0xb0, 0x56, 0x00, 0xbd,
  0x2c, 0x11, 0x42, 0x3c, 0x57, 0xb3, 0x96, 0xbc, 0x42, 0x55, 0xb4, 0xbc,
  0x44, 0xa3, 0x27, 0x3c, 0x90, 0x02, 0xc4, 0x3c, 0x56, 0x3d, 0x07, 0x3d,
  0x12, 0xca, 0xcb, 0xbc, 0xf4, 0x83, 0x23, 0xbc, 0x2c, 0x38, 0x6f, 0x3c,
  0x12, 0xbd, 0x2f, 0xbc, 0x02, 0xed, 0x0d, 0xbd, 0xe0, 0xf2, 0xd3, 0x3a,
  0xc0, 0x65, 0x32, 0x3a, 0x40, 0x70, 0x7b, 0x3b, 0x5a, 0xe3, 0x99, 0xbc,
  0xfc, 0x0d, 0x32, 0x3c, 0x80, 0x4d, 0xe3, 0x3c, 0xc1, 0xab, 0x9f, 0xbc,
  0xc4, 0x97, 0x08, 0xbd, 0x7a, 0x4f, 0xf4, 0xbc, 0x80, 0x46, 0x99, 0x3a,
  0x60, 0xe3, 0x11, 0x3d, 0x5d, 0x53, 0x09, 0xbd, 0xec, 0x3b, 0xc9, 0x3c,
  0x48, 0xd2, 0x00, 0xbd, 0xf0, 0x8f, 0x09, 0x3d, 0x1a, 0x88, 0x44, 0xbc,
  0x94, 0xed, 0xbf, 0xbc, 0x70, 0x52, 0xde, 0xbb, 0x1f, 0x88, 0x0b, 0xbd,
  0x80, 0xa0, 0x87, 0x3c, 0xa4, 0xf9, 0x26, 0x3c, 0xc2, 0x88, 0x0a, 0x3d,
  0xfc, 0x48, 0x00, 0x3c, 0xfc, 0xff, 0xea, 0x3c, 0x08, 0x75, 0x9c, 0xbc,
  0xcc, 0x4a, 0xb8, 0x3c, 0x00, 0x53, 0xad, 0x3a, 0xb0, 0xc0, 0x75, 0x3c,
  0x10, 0x1a, 0x58, 0xbb, 0xb6, 0xc8, 0x04, 0xbd, 0x7e, 0x47, 0xc3, 0x3c,
  0x9a, 0x78, 0xee, 0xbc, 0xc0, 0x6a, 0x21, 0xbb, 0x80, 0xb2, 0x8d, 0xbb,
  0xc0, 0xf7, 0x84, 0xba, 0x60, 0x4d, 0x0e, 0x3d, 0xe2, 0xf9, 0x4d, 0xbc,
  0x0c, 0xf4, 0xfc, 0x3c, 0x21, 0x9a, 0x90, 0xbc, 0x24, 0x1e, 0x02, 0x3d,
  0xec, 0x81, 0xd8, 0x3c, 0x00, 0x91, 0x03, 0x3a, 0x16, 0x2a, 0x2a, 0xbc,
  0xa0, 0x93, 0xdc, 0x3c, 0xf2, 0x71, 0x77, 0xbc, 0xa8, 0x0f, 0x85, 0x3c,
  0x0d, 0x2a, 0x05, 0xbd, 0xe5, 0xf6, 0xa8, 0xbc, 0x86, 0x16, 0x3b, 0xbc,
  0xbc, 0x93, 0xf2, 0x3c, 0xdb, 0xb1, 0x0b, 0xbd, 0x76, 0x78, 0x51, 0xbc,
  0x8c, 0xfa, 0xa7, 0x3c, 0x07, 0xea, 0x94, 0xbc, 0x15, 0x70, 0x04, 0xbd,
  0x48, 0x77, 0x2a, 0x3c, 0x77, 0xd3, 0x18, 0xbd, 0x4c, 0x4b, 0xee, 0x3c,
  0x29, 0xac, 0x14, 0xbd, 0x80, 0xdc, 0xe1, 0xba, 0x88, 0xe6, 0x02, 0x3d,
  0x80, 0x4b, 0xca, 0xba, 0x68, 0xa3, 0x26, 0xbc, 0xd4, 0x6b, 0x5a, 0x3c,
  0xa0, 0x8b, 0xcb, 0x3b, 0x80, 0x0b, 0x26, 0xba, 0x50, 0x7e, 0xf0, 0xbb,
  0x70, 0xc3, 0xb7, 0x3b, 0xc8, 0x1e, 0x8a, 0x3b, 0x9b, 0xca, 0x8b, 0xbc,
  0xd0, 0x8d, 0x42, 0xbb, 0x54, 0x35, 0xb7, 0xbc, 0xbe, 0x51, 0x0c, 0x3d,
  0xdb, 0xdc, 0x15, 0xbd, 0x02, 0xcb, 0x06, 0x3d, 0x0a, 0x89, 0x9c, 0x3c,
  0x68, 0x2c, 0x0b, 0x3d, 0x10, 0x01, 0x49, 0x3b, 0x65, 0x2d, 0xda, 0xbc,
  0xe0, 0xdc, 0x47, 0xbb, 0x4c, 0xcb, 0xb2, 0x3c, 0x18, 0x6b, 0x4f, 0x3c,
  0x3a, 0x50, 0x0a, 0x3d, 0xfc, 0x3d, 0x6f, 0xbc, 0x36, 0xd6, 0x3d, 0xbc,
  0x92, 0x7c, 0xc8, 0xbc, 0x9a, 0x3a, 0x0e, 0xbd, 0xd7, 0x98, 0x08, 0xbd,
  0x08, 0xd4, 0xbd, 0x3c, 0x00, 0x87, 0x55, 0x3b, 0x40, 0x80, 0x12, 0x3c,
  0xac, 0xb0, 0x26, 0xbc, 0xd6, 0x25, 0x15, 0xbd, 0x05, 0xfc, 0x9f, 0xbc,
  0xa4, 0xe6, 0x91, 0x3c, 0x94, 0xc9, 0xda, 0x3c, 0x9a, 0x7d, 0xc0, 0xbc,
  0xec, 0x6a, 0x34, 0xbc, 0x31, 0x47, 0x11, 0xbd, 0xf8, 0x34, 0xc5, 0x3b,
  0xb0, 0x68, 0x31, 0x3c, 0xce, 0x57, 0x12, 0x3d, 0xb0, 0x66, 0x9a, 0xbb,
  0xc6, 0xfb, 0x44, 0xbc, 0x00, 0x3e, 0x1e, 0x39, 0x18, 0xe5, 0x05, 0x3d,
  0x5c, 0xeb, 0x36, 0x3c, 0x80, 0x3e, 0x3b, 0x3b, 0x60, 0x1c, 0xa3, 0xba,
  0xe4, 0xc5, 0x53, 0xbc, 0x80, 0x21, 0xe5, 0x3b, 0xc0, 0xbd, 0xd8, 0x3c,
  0xf4, 0x82, 0x53, 0x3c, 0x38, 0x91, 0x3d, 0xbc, 0x00, 0x98, 0x27, 0xbb,
  0xd4, 0xb5, 0xf7, 0x3c, 0x8a, 0x65, 0x77, 0xbc, 0xa5, 0x12, 0xaa, 0xbc,
  0x30, 0xcd, 0xfb, 0xbc, 0xc4, 0x62, 0xa5, 0x3c, 0xc8, 0xa6, 0xa6, 0xbc,
  0x89, 0x2e, 0x17, 0xbd, 0xf8, 0x0f, 0xb1, 0x3c, 0xba, 0x3f, 0xd3, 0xbc,
  0x9d, 0x86, 0x07, 0xbd, 0x40, 0xfd, 0x3a, 0xba, 0xe2, 0x2f, 0x13, 0xbd,
  0x7c, 0xff, 0x54, 0x3c, 0xd3, 0x9c, 0x8f, 0xbc, 0x36, 0x4d, 0x5a, 0xbc,
  0x6a, 0x3f, 0x36, 0xbc, 0xc8, 0x55, 0xbd, 0xbb, 0xb0, 0xf9, 0x9c, 0x3c,
  0x3c, 0xfa, 0xf8, 0x3c, 0x48, 0x08, 0x3c, 0xbc, 0xe0, 0x58, 0x66, 0x3c,
  0xe5, 0xb5, 0x11, 0xbd, 0xaa, 0x06, 0x79, 0xbc, 0xec, 0x40, 0xf5, 0x3c,
  0x6c, 0x20, 0x08, 0x3c, 0xfc, 0xf6, 0xff, 0xbb, 0x48, 0x24, 0x05, 0x3d,
  0x08, 0xfe, 0x95, 0x3c, 0x70, 0xc9, 0xca, 0xbc, 0xc6, 0x64, 0x81, 0xbc,
  0x44, 0x43, 0x04, 0x3d, 0x4d, 0xd3, 0xaf, 0xbc, 0x71, 0x97, 0x90, 0xbc,
  0xac, 0xf6, 0xb2, 0xbc, 0x60, 0xf3, 0xe2, 0x3c, 0x38, 0xd1, 0xd6, 0x3c,
  0xfe, 0x95, 0xc6, 0x3c, 0xa0, 0x86, 0xfb, 0xbc, 0xd8, 0x43, 0x0c, 0x3c,
  0x48, 0xf9, 0xe6, 0x3c, 0xb0, 0xb8, 0x17, 0xbd, 0x96, 0xd0, 0x0f, 0xbd,
  0x88, 0xdf, 0x8b, 0xbb, 0x08, 0x92, 0x2b, 0x3c, 0x32, 0x7f, 0x18, 0xbd,
  0x4c, 0xa1, 0xfe, 0xbc, 0x44, 0x34, 0xe8, 0xbb, 0x5e, 0x95, 0xbe, 0x3c,
  0x10, 0xdc, 0x06, 0xbd, 0xb6, 0x40, 0x0f, 0xbd, 0x2c, 0xa5, 0x99, 0xbc,
  0xc7, 0x4b, 0xc8, 0xbc, 0xb8, 0x44, 0x44, 0xbc, 0x34, 0xb0, 0x03, 0x3d,
  0x44, 0xd1, 0x9a, 0xbc, 0x60, 0x04, 0xa3, 0x3c, 0x90, 0xf6, 0xac, 0x3c,
  0xfe, 0x32, 0xbb, 0xbc, 0xc0, 0x15, 0x9d, 0xba, 0xae, 0x0d, 0x0e, 0x3d,
  0x98, 0xa8, 0xad, 0xbb, 0x88, 0x4d, 0xd4, 0xbb, 0x50, 0xe7, 0x1d, 0x3b,
  0x58, 0x24, 0xcb, 0x3b, 0xc0, 0xbf, 0xa2, 0x3a, 0x6a, 0x84, 0x3d, 0xbc,
  0x6a, 0x42, 0x4a, 0xbc, 0x6e, 0x51, 0xbd, 0x3c, 0x20, 0x28, 0x12, 0x3c,
  0x9e, 0x4e, 0xc4, 0x3c, 0x20, 0x90, 0x2c, 0xbc, 0x60, 0x35, 0x56, 0xbc,
  0x52, 0x92, 0x29, 0xbc, 0x00, 0x2e, 0xbd, 0xbb, 0xae, 0xc7, 0x97, 0x3c,
  0x1c, 0x86, 0x8b, 0x3c, 0x44, 0xd6, 0xea, 0xbb, 0x22, 0xdd, 0x95, 0x3c,
  0x10, 0x61, 0x73, 0x3b, 0x24, 0xd5, 0xe1, 0x3c, 0x1f, 0xe4, 0x98, 0xbc,
  0x1a, 0x8b, 0x01, 0x3d, 0x9c, 0x42, 0x94, 0xbc, 0xae, 0x16, 0x83, 0x3c,
  0x34, 0xdb, 0xf6, 0x3c, 0x3c, 0x34, 0xa8, 0xbc, 0x19, 0xdd, 0xa0, 0xbc,
  0xf4, 0x76, 0xd2, 0x3c, 0xd4, 0xa4, 0xd4, 0x3c, 0xb0, 0xf6, 0x9f, 0x3b,
  0x30, 0xc5, 0xb2, 0x3c, 0x5c, 0x2d, 0xee, 0x3c, 0x04, 0x04, 0x6e, 0xbc,
  0xfa, 0x2f, 0xa7, 0xbc, 0x00, 0xef, 0x68, 0x39, 0x52, 0xa4, 0x73, 0xbc,
  0x7e, 0x85, 0x30, 0xbc, 0x38, 0x6e, 0xd0, 0xbb, 0x1c, 0x6b, 0xe3, 0x3c,
  0xcd, 0xfa, 0x94, 0xbc, 0xb4, 0xa1, 0x37, 0xbc, 0x38, 0x04, 0x02, 0x3d,
  0x2c, 0xb9, 0x93, 0x3c, 0x98, 0x1c, 0xf6, 0x3b, 0x38, 0x8d, 0x53, 0x3c,
  0x48, 0x2c, 0x1e, 0x3c, 0xa8, 0x04, 0xc8, 0x3b, 0xe0, 0x7f, 0x8b, 0x3b,
  0x40, 0x61, 0x0a, 0xbb, 0x96, 0x45, 0x6a, 0xbc, 0x40, 0x16, 0x98, 0xba,
  0xb0, 0xb1, 0x2a, 0xbb, 0xd8, 0xb2, 0xcb, 0x3b, 0xc2, 0x8c, 0x5c, 0xbc,
  0xd0, 0x6b, 0xc0, 0xbb, 0x24, 0xe3, 0x89, 0x3c, 0x44, 0x32, 0x7d, 0x3c,
  0xc0, 0xb0, 0xda, 0x3c, 0x12, 0xef, 0xc8, 0x3c, 0x33, 0xb8, 0x16, 0xbd,
  0xf4, 0xb2, 0xd3, 0x3c, 0x1c, 0x90, 0x11, 0xbc, 0xa7, 0x72, 0x85, 0xbc,
  0xc0, 0x2a, 0xcf, 0x3c, 0x68, 0x68, 0xc0, 0xbc, 0xfe, 0xa1, 0xb9, 0x3c,
  0x28, 0xf9, 0xec, 0x3b, 0xf2, 0xc3, 0x70, 0xbc, 0x00, 0xcc, 0xb3, 0x38,
  0x40, 0xbf, 0xca, 0x3b, 0x48, 0xc3, 0xa2, 0xbb, 0x78, 0xc7, 0x15, 0x3c,
  0xaa, 0xbd, 0xcc, 0x3c, 0xe0, 0x66, 0x7c, 0xbb, 0xe0, 0xca, 0x1f, 0x3c,
  0x70, 0xed, 0x15, 0xbc, 0x64, 0x71, 0x6e, 0x3c, 0xf4, 0xd1, 0xaf, 0x3c,
  0xb8, 0x64, 0xdd, 0x3c, 0x18, 0xb3, 0x15, 0xbc, 0x86, 0xcf, 0x44, 0xbc,
  0x40, 0xd3, 0x4f, 0x3a, 0xe0, 0x9f, 0x08, 0x3d, 0x80, 0x6b, 0x09, 0xba,
  0x44, 0x01, 0x97, 0x3c, 0x90, 0x94, 0xc5, 0x3b, 0x00, 0xd3, 0x17, 0x3d,
  0xa0, 0x20, 0x69, 0x3b, 0x4c, 0xa1, 0xb3, 0xbc, 0x8c, 0x5b, 0x97, 0x3c,
  0x70, 0xbd, 0x4b, 0xbb, 0x40, 0x36, 0x80, 0x3a, 0x08, 0x3a, 0xbd, 0x3c,
  0xe4, 0x99, 0x12, 0x3d, 0x8f, 0xf0, 0x82, 0xbc, 0xc0, 0xa0, 0x9e, 0x3a,
  0xb3, 0xbf, 0x12, 0xbd, 0x31, 0x07, 0x09, 0xbd, 0x98, 0x18, 0xe4, 0x3b,
  0x9c, 0x5b, 0xe3, 0xbc, 0x54, 0xc5, 0x05, 0x3d, 0x1c, 0x07, 0x56, 0x3c,
  0x5e, 0x00, 0x52, 0xbc, 0xb0, 0x91, 0x78, 0xbb, 0x08, 0x0b, 0xfb, 0xbb,
  0x50, 0x82, 0x21, 0xbb, 0xb0, 0x5d, 0xdc, 0x3c, 0xf8, 0x4b, 0x13, 0x3d,
  0xb2, 0x7b, 0x04, 0x3d, 0x08, 0x80, 0x81, 0x3b, 0x40, 0x1e, 0x62, 0x3b,
  0x82, 0x91, 0x06, 0x3d, 0x44, 0xcf, 0xdd, 0x3c, 0x50, 0x9c, 0xae, 0xbc,
  0x5a, 0x7e, 0xdc, 0xbc, 0x0a, 0x3e, 0xb2, 0x3c, 0x60, 0xa2, 0xc8, 0x3b,
  0xae, 0x97, 0x38, 0xbc, 0xd7, 0x2d, 0x00, 0xbd, 0xc8, 0xa2, 0x86, 0xbb,
  0x7e, 0x97, 0x9d, 0x3c, 0xa2, 0x1c, 0x07, 0x3d, 0x73, 0x2e, 0x16, 0xbd,
  0xa0, 0x02, 0x1b, 0x3c, 0x82, 0x92, 0xf3, 0xbc, 0xc0, 0x38, 0xd2, 0x3c,
  0x9a, 0x35, 0x07, 0x3d, 0x30, 0xf9, 0xed, 0x3b, 0x8a, 0xe3, 0xf3, 0xbc,
  0x95, 0x42, 0x13, 0xbd, 0xb6, 0x1f, 0xec, 0xbc, 0x40, 0x80, 0x84, 0x3a,
  0xce, 0xfb, 0x08, 0x3d, 0x00, 0x9b, 0xea, 0x3c, 0x12, 0xc9, 0x01, 0x3d,
  0xca, 0xe1, 0xad, 0x3c, 0x0a, 0x89, 0xc2, 0x3c, 0x68, 0xbb, 0x8d, 0x3b,
  0x08, 0xd8, 0x00, 0x3c, 0xcc, 0x54, 0xd6, 0x3c, 0x38, 0xa2, 0xd9, 0x3c,
  0x03, 0xa7, 0x9e, 0xbc, 0x10, 0xec, 0x71, 0xbc, 0x00, 0x39, 0x3d, 0xb9,
  0x6e, 0x6d, 0x02, 0xbd, 0x90, 0x1f, 0x98, 0x3b, 0xec, 0xa9, 0x53, 0x3c,
  0x08, 0x7d, 0x07, 0xbc, 0xa0, 0x0f, 0xef, 0x3c, 0xb2, 0xa6, 0x16, 0xbd,
  0x64, 0x85, 0x8a, 0xbc, 0xe6, 0xf6, 0x54, 0xbc, 0x80, 0xf1, 0x8e, 0x39,
  0x9c, 0xd3, 0x6c, 0xbc, 0x42, 0x25, 0x92, 0x3c, 0x0c, 0xc1, 0x19, 0x3c,
  0xc0, 0xdb, 0x17, 0xbd, 0xb2, 0x00, 0x00, 0xbd, 0x68, 0x65, 0x91, 0xbc,
  0x5c, 0x22, 0xe0, 0xbc, 0x1c, 0x18, 0xce, 0xbc, 0x30, 0x27, 0xe9, 0xbb,
  0x1e, 0x21, 0x82, 0x3c, 0x86, 0x94, 0x03, 0x3d, 0x28, 0x70, 0x0c, 0x3d,
  0x00, 0x00, 0x7e, 0x35, 0xf0, 0x81, 0x00, 0xbc, 0xb6, 0x41, 0x9d, 0x3c,
  0xbe, 0x55, 0xc5, 0x3c, 0x80, 0xc1, 0x87, 0xba, 0xda, 0x8a, 0x23, 0xbc,
  0x44, 0x48, 0x63, 0xbc, 0xc8, 0x7e, 0x49, 0x3c, 0x74, 0xc0, 0xe9, 0x3c,
  0xa4, 0xfd, 0xeb, 0x3c, 0x6c, 0x49, 0xf8, 0x3c, 0x30, 0xcc, 0x83, 0x3b,
  0x80, 0x23, 0x60, 0xba, 0x08, 0x52, 0x05, 0x3d, 0xb0, 0x84, 0x32, 0xbc,
  0xad, 0x04, 0xaa, 0xbc, 0x47, 0x6f, 0xa8, 0xbc, 0xb0, 0x31, 0xa7, 0x3c,
  0xb0, 0xc9, 0xf0, 0xbb, 0xea, 0xd7, 0x97, 0x3c, 0x2f, 0x34, 0xc5, 0xbc,
  0x6a, 0x86, 0x8e, 0x3c, 0x3c, 0xc6, 0x4a, 0xbc, 0x8a, 0x01, 0x92, 0xbc,
  0x08, 0x7b, 0xf4, 0xbc, 0x98, 0x5c, 0x2f, 0x3c, 0x0c, 0x60, 0x39, 0x3c,
  0x22, 0xe8, 0x09, 0x3d, 0xe8, 0x38, 0xd7, 0x3c, 0x4a, 0xc1, 0xfa, 0xbc,
  0x32, 0x70, 0xf6, 0xbc, 0x78, 0xcd, 0xe8, 0x3c, 0xa8, 0x7a, 0x52, 0xbc,
  0x40, 0x8b, 0xc8, 0xbc, 0x60, 0x37, 0x0a, 0x3b, 0x78, 0x0e, 0x9e, 0x3c,
  0xb2, 0x5d, 0x0a, 0x3d, 0xf0, 0x52, 0x4c, 0xbb, 0x5f, 0x32, 0x03, 0xbd,
  0x4c, 0xe0, 0x16, 0x3c, 0x10, 0x69, 0x03, 0x3d, 0xac, 0x83, 0x82, 0x3c,
  0x80, 0xbb, 0x14, 0xbc, 0x3a, 0xe5, 0x17, 0xbc, 0x02, 0x92, 0xd2, 0xbc,
  0x58, 0x46, 0x13, 0xbd, 0x4e, 0x46, 0xaa, 0x3c, 0xcc, 0x93, 0xe9, 0xbc,
  0xe0, 0x64, 0x1e, 0x3c, 0xb8, 0x20, 0xde, 0x3c, 0x7e, 0xdb, 0xb5, 0x3c,
  0x10, 0x59, 0x40, 0x3c, 0xe9, 0x51, 0x80, 0xbc, 0xd2, 0x8f, 0x11, 0xbd,
  0x92, 0x4a, 0xa1, 0x3c, 0xc4, 0xe1, 0xee, 0x3c, 0xbc, 0xf4, 0x13, 0x3d,
  0x9e, 0x48, 0x9d, 0xbc, 0x24, 0x42, 0x14, 0x3d, 0x90, 0x8e, 0xbf, 0x3b,
  0x74, 0xf2, 0xed, 0xbc, 0x80, 0x60, 0xd6, 0xb9, 0xb2, 0x33, 0x22, 0xbc,
  0x86, 0x2f, 0x6d, 0xbc, 0xf8, 0x96, 0xd0, 0x3c, 0x68, 0x84, 0x05, 0xbc,
  0xdb, 0xd4, 0xf6, 0xbc, 0x08, 0xf2, 0x04, 0xbd, 0xa8, 0x93, 0x77, 0x3c,
  0x96, 0xec, 0xe6, 0xbc, 0x48, 0xec, 0x30, 0x3c, 0x48, 0x78, 0x91, 0x3b,
  0x60, 0xca, 0x5d, 0xbb, 0x90, 0x90, 0x12, 0x3d, 0xf0, 0x46, 0x18, 0xbb,
  0xec, 0x7a, 0x78, 0x3c, 0xed, 0x5d, 0xa3, 0xbc, 0xb3, 0x3d, 0x9e, 0xbc,
  0x30, 0x33, 0x68, 0x3b, 0xe8, 0x69, 0xd2, 0xbb, 0x97, 0x1c, 0x85, 0xbc,
  0x7e, 0x50, 0xf0, 0xbc, 0x78, 0xf0, 0xf3, 0xbc, 0x16, 0x1a, 0x81, 0x3c,
  0x0c, 0x90, 0x47, 0xbc, 0x36, 0xf8, 0x54, 0xbc, 0x48, 0xcb, 0x07, 0xbd,
  0xb4, 0xc7, 0x61, 0x3c, 0x70, 0xb6, 0x08, 0x3b, 0x1c, 0x13, 0x65, 0xbc,
  0x30, 0xc4, 0x4c, 0x3b, 0x24, 0xcf, 0x32, 0xbc, 0xfc, 0x80, 0x89, 0x3c,
  0x5a, 0x8a, 0x37, 0xbc, 0xc8, 0x07, 0x05, 0xbd, 0x64, 0xb7, 0x02, 0x3d,
  0x44, 0xee, 0x7f, 0x3c, 0x00, 0x56, 0xa1, 0x3b, 0x4c, 0x56, 0xdd, 0xbc,
  0x74, 0xe6, 0xfd, 0x3c, 0x82, 0xde, 0x12, 0x3d, 0xe4, 0x5b, 0x1c, 0xbc,
  0xc7, 0x23, 0x15, 0xbd, 0x36, 0x0e, 0x16, 0x3d, 0x1b, 0xfb, 0x83, 0xbc,
  0xf0, 0xa2, 0x39, 0xbc, 0x30, 0xb0, 0xd0, 0x3c, 0xd6, 0x94, 0xbb, 0xbc,
  0x86, 0x7b, 0x0a, 0xbd, 0x2a, 0x41, 0xcb, 0x3c, 0x88, 0xf9, 0xa1, 0x3c,
  0x94, 0xa6, 0x95, 0x3c, 0x1d, 0x29, 0xd5, 0xbc, 0x40, 0x12, 0xb0, 0xba,
  0x40, 0x0e, 0x24, 0x3b, 0x20, 0xa9, 0x1c, 0x3c, 0x20, 0xe1, 0x94, 0x3b,
  0x80, 0x54, 0xcf, 0xba, 0x96, 0x19, 0xc3, 0xbc, 0x0e, 0x31, 0x26, 0xbc,
  0x5b, 0x2a, 0xa5, 0xbc, 0x00, 0xb1, 0x12, 0x39, 0xc0, 0x46, 0x56, 0x3c,
  0x5a, 0x83, 0x8b, 0xbc, 0xe6, 0x00, 0xdc, 0xbc, 0x38, 0x5e, 0xc2, 0xbb,
  0x53, 0x16, 0x0c, 0xbd, 0x60, 0xf3, 0x43, 0x3c, 0xf2, 0x5e, 0x00, 0x3d,
  0xf8, 0x17, 0x4f, 0xbc, 0xcc, 0x8e, 0x14, 0x3d, 0x42, 0xfe, 0x92, 0x3c,
  0x90, 0x77, 0x6c, 0x3b, 0x8f, 0x63, 0x18, 0xbd, 0x60, 0x6f, 0xa7, 0xbc,
  0xf0, 0x94, 0xda, 0x3c, 0x72, 0x46, 0xe4, 0xbc, 0x1e, 0x7a, 0x00, 0xbc,
  0xb6, 0xdd, 0xaf, 0x3c, 0xc0, 0xa8, 0x4a, 0xba, 0xdc, 0xf0, 0xc7, 0x3c,
  0x38, 0xdb, 0xb9, 0xbb, 0x21, 0x71, 0xf6, 0xbc, 0x8a, 0x37, 0xc8, 0xbc,
  0x42, 0x87, 0x0b, 0x3d, 0x00, 0xc6, 0xb4, 0xba, 0x0c, 0xd7, 0x51, 0x3c,
  0x76, 0x0a, 0x14, 0xbd, 0xb4, 0x09, 0x72, 0x3c, 0xc8, 0x37, 0xf3, 0x3b,
  0x19, 0x8e, 0x83, 0xbc, 0xe0, 0xcd, 0xb5, 0xba, 0x0e, 0x96, 0xf9, 0xbc,
  0xa9, 0x25, 0x14, 0xbd, 0xf9, 0xb4, 0x02, 0xbd, 0x2a, 0x94, 0x62, 0xbc,
  0x60, 0xb9, 0xab, 0xbb, 0x44, 0xaa, 0x27, 0xbc, 0x0e, 0xf1, 0xe6, 0xbc,
  0x33, 0xa1, 0x07, 0xbd, 0x84, 0x28, 0xfa, 0x3c, 0x83, 0x9d, 0x88, 0xbc,
  0xa5, 0xe4, 0xd5, 0xbc, 0x2a, 0x9a, 0x05, 0x3d, 0x14, 0x25, 0x0e, 0x3d,
  0xb0, 0xaf, 0x89, 0x3c, 0x40, 0xee, 0x02, 0x3d, 0xa1, 0xef, 0x09, 0xbd,
  0x96, 0x86, 0x15, 0x3d, 0x2b, 0x52, 0x0a, 0xbd, 0xaa, 0xf2, 0x91, 0x3c,
  0xf0, 0xc1, 0x9d, 0xbc, 0x98, 0x79, 0x91, 0x3c, 0x64, 0x30, 0x02, 0xbc,
  0x0e, 0x81, 0x1a, 0xbc, 0xc8, 0x6a, 0x9f, 0x3b, 0x38, 0x66, 0xaf, 0x3b,
  0x38, 0xa9, 0xe8, 0xbc, 0x62, 0x8b, 0xb6, 0xbc, 0x64, 0x41, 0xc0, 0xbc,
  0x1e, 0x6a, 0xbb, 0xbc, 0x6e, 0x2b, 0x83, 0xbc, 0xc0, 0x08, 0x98, 0xbc,
  0x10, 0x30, 0x43, 0x3c, 0x71, 0xf1, 0xd8, 0xbc, 0xc1, 0x29, 0x15, 0xbd,
  0x10, 0x33, 0xb6, 0x3b, 0x1c, 0xc1, 0x49, 0xbc, 0xa8, 0x1e, 0x5c, 0x3c,
  0x83, 0x3e, 0xbb, 0xbc, 0x39, 0x7f, 0xe5, 0xbc, 0xe0, 0x2e, 0xa4, 0xbb,
  0x8d, 0x97, 0xb1, 0xbc, 0xec, 0x0c, 0x3f, 0x3c, 0x3c, 0x39, 0xeb, 0xbc,
  0x77, 0xc0, 0x0a, 0xbd, 0x78, 0xc1, 0x06, 0x3d, 0xa6, 0xc8, 0x9e, 0x3c,
  0xe4, 0x3e, 0x50, 0x3c, 0xb0, 0xcc, 0x53, 0x3c, 0x5a, 0x22, 0x83, 0x3c,
  0x95, 0x46, 0x17, 0xbd, 0x10, 0x42, 0x69, 0xbb, 0x57, 0x50, 0xb3, 0xbc,
  0xd4, 0xbf, 0x0a, 0x3d, 0xb4, 0xca, 0x09, 0x3c, 0xc0, 0x9c, 0x01, 0xba,
  0x60, 0x2e, 0x0a, 0xbd, 0x14, 0x5d, 0xd2, 0x3c, 0x2c, 0x71, 0xca, 0xbc,
  0x18, 0x85, 0xee, 0x3b, 0xb8, 0x55, 0xa9, 0x3b, 0x0c, 0x8f, 0xfc, 0xbc,
  0xee, 0xc2, 0x03, 0xbd, 0x54, 0x4c, 0xf3, 0x3c, 0x80, 0x4b, 0x13, 0x3d,
  0x62, 0x28, 0x85, 0x3c, 0x80, 0xbe, 0x89, 0x3c, 0x52, 0xfb, 0x0c, 0x3d,
  0x40, 0xb0, 0x37, 0xbb, 0x5a, 0x02, 0x8a, 0x3c, 0xd8, 0x81, 0xf1, 0xbc,
  0x00, 0x6c, 0x80, 0x38, 0x07, 0xc1, 0xac, 0xbc, 0x00, 0xb3, 0xac, 0xba,
  0xf6, 0x9e, 0xd6, 0xbc, 0x7a, 0x04, 0xdd, 0xbc, 0x0e, 0x1c, 0x9d, 0xbc,
  0x98, 0xfc, 0xe2, 0xbb, 0x64, 0x82, 0x04, 0x3d, 0x5b, 0xf4, 0xc7, 0xbc,
  0xd8, 0x06, 0x97, 0xbb, 0x70, 0x6c, 0xd0, 0x3c, 0xe2, 0x48, 0xb6, 0xbc,
  0xb0, 0xfe, 0xd9, 0x3b, 0x64, 0x31, 0x43, 0xbc, 0x5c, 0x0b, 0xcd, 0xbc,
  0x84, 0xdd, 0xa7, 0x3c, 0x62, 0xb9, 0xf0, 0xbc, 0x04, 0x35, 0x17, 0xbc,
  0xbe, 0xa3, 0x8c, 0x3c, 0xd6, 0xd2, 0xeb, 0xbc, 0xb8, 0xf4, 0xca, 0xbb,
  0x60, 0xf0, 0xf3, 0x3c, 0xc0, 0x92, 0x26, 0x3b, 0x40, 0x5d, 0x9c, 0xbb,
  0x4c, 0x4f, 0x5c, 0x3c, 0x52, 0x49, 0xc3, 0xbc, 0xe0, 0x05, 0x62, 0xbb,
  0x6c, 0x2f, 0x5b, 0xbc, 0x4e, 0x61, 0x2d, 0xbc, 0x76, 0x25, 0x17, 0x3d,
  0x4e, 0xff, 0x50, 0xbc, 0x8c, 0x60, 0xaf, 0x3c, 0xb2, 0x33, 0x0a, 0x3d,
  0xae, 0xdc, 0xa8, 0xbc, 0xbc, 0x23, 0x35, 0xbc, 0x00, 0x27, 0x2b, 0xb9,
  0x8c, 0xeb, 0x7d, 0xbc, 0x20, 0xe7, 0x9b, 0xbb, 0xa8, 0x56, 0x0a, 0xbd,
  0x9a, 0x17, 0xab, 0x3c, 0xa4, 0x0e, 0xfc, 0xbb, 0x16, 0x38, 0xb6, 0xbc,
  0x7a, 0x53, 0xb9, 0x3c, 0xe0, 0x10, 0xec, 0xbc, 0x80, 0x80, 0x6a, 0x3a,
  0x2c, 0xf5, 0xd9, 0xbc, 0x00, 0x8e, 0x1b, 0x3a, 0x18, 0x88, 0x8d, 0xbc,
  0x1c, 0xaf, 0xe2, 0x3c, 0x5d, 0x74, 0xa1, 0xbc, 0x28, 0x51, 0xb0, 0x3c,
  0x10, 0x37, 0x54, 0xbc, 0x5b, 0xd0, 0xcf, 0xbc, 0xba, 0x4c, 0x0b, 0xbd,
  0xf8, 0xfb, 0x95, 0x3c, 0x60, 0xd6, 0x72, 0x3b, 0xa0, 0xe9, 0xe3, 0xba,
  0x40, 0xa2, 0xd2, 0x3c, 0x10, 0x18, 0xce, 0x3b, 0x6e, 0xa9, 0x11, 0x3d,
  0xce, 0x3e, 0x8f, 0xbc, 0x10, 0x4a, 0x22, 0x3c, 0x90, 0xbe, 0xf3, 0x3c,
  0x24, 0x81, 0xcf, 0x3c, 0x15, 0x74, 0xfe, 0xbc, 0x90, 0x74, 0x9e, 0xbb,
  0x58, 0x7b, 0x84, 0x3c, 0x48, 0xbd, 0x53, 0x3c, 0x6a, 0x97, 0x17, 0xbd,
  0x48, 0x4e, 0x84, 0xbb, 0x7e, 0xf2, 0xb1, 0xbc, 0x28, 0x74, 0x69, 0x3c,
  0x1c, 0xc6, 0x36, 0x3c, 0xf0, 0x60, 0xe7, 0x3b, 0x68, 0xc1, 0x0d, 0xbd,
  0x7e, 0x7c, 0xe7, 0xbc, 0xd8, 0x69, 0x56, 0xbc, 0x38, 0x5c, 0xa9, 0xbb,
  0x9a, 0xe6, 0x93, 0xbc, 0x74, 0x88, 0x10, 0xbd, 0xb8, 0x34, 0xd4, 0x3c,
  0x6b, 0x6d, 0xb3, 0xbc, 0x34, 0xdf, 0x34, 0x3c, 0x30, 0xa4, 0x9b, 0x3b,
  0x98, 0xc4, 0xfd, 0x3c, 0x00, 0x49, 0xa5, 0xbb, 0xc8, 0xb1, 0x9e, 0xbc,
  0x80, 0x64, 0xf2, 0xbc, 0xd2, 0xd3, 0x31, 0xbc, 0x00, 0x44, 0x01, 0xb8,
  0x00, 0x95, 0x9e, 0xbc, 0x40, 0xb3, 0x93, 0x3c, 0xc9, 0xbe, 0x02, 0xbd,
  0x5c, 0x37, 0x17, 0xbd, 0xd4, 0x78, 0x42, 0xbc, 0x77, 0xab, 0x81, 0xbc,
  0x38, 0x00, 0xf1, 0x3c, 0x74, 0xbb, 0xf6, 0xbc, 0xb8, 0x38, 0xae, 0x3c,
  0x4e, 0x2e, 0x9c, 0x3c, 0x2f, 0x82, 0xa2, 0xbc, 0x00, 0x00, 0xc3, 0xb6,
  0x10, 0x44, 0xbf, 0x3b, 0xb0, 0xf8, 0x3b, 0x3b, 0xfc, 0x58, 0x3e, 0xbc,
  0x40, 0xe4, 0x12, 0xba, 0x18, 0xc7, 0xf7, 0x3c, 0x70, 0xfa, 0x36, 0xbb,
  0x56, 0x98, 0x79, 0xbc, 0x8a, 0x6a, 0x9e, 0x3c, 0xce, 0x74, 0x04, 0x3d,
  0x32, 0xab, 0x4f, 0xbc, 0x49, 0x63, 0xc1, 0xbc, 0x40, 0xb5, 0xa2, 0x3a,
  0x72, 0x2b, 0xd4, 0xbc, 0xea, 0x84, 0x2f, 0xbc, 0xdb, 0x5b, 0x9b, 0xbc,
  0xc0, 0x98, 0x0d, 0x3c, 0xc0, 0x00, 0xf0, 0xba, 0x3b, 0x94, 0x94, 0xbc,
  0xa4, 0xcb, 0xd1, 0x3c, 0xa0, 0x27, 0xe1, 0x3b, 0x3c, 0xb5, 0x0e, 0xbd,
  0xb0, 0x21, 0x0d, 0xbd, 0xe8, 0xd1, 0xec, 0x3c, 0x2c, 0x2f, 0xb7, 0x3c,
  0x08, 0x62, 0xa0, 0xbb, 0xf8, 0x4b, 0xa4, 0x3b, 0x30, 0x68, 0x6f, 0x3c,
  0x8c, 0xbd, 0x0c, 0x3d, 0xf6, 0x23, 0x0c, 0x3d, 0xd0, 0xbb, 0x44, 0xbb,
  0x15, 0xfa, 0xf8, 0xbc, 0x48, 0xac, 0x97, 0xbb, 0x80, 0x54, 0xba, 0x3c,
  0x73, 0x9e, 0x84, 0xbc, 0x5a, 0x61, 0xba, 0xbc, 0x2c, 0x36, 0x5e, 0x3c,
  0x54, 0x9f, 0xec, 0x3c, 0x8c, 0x79, 0xd5, 0x3c, 0x60, 0x19, 0xbc, 0x3c,
  0xb2, 0x65, 0x16, 0x3d, 0x10, 0xa9, 0x93, 0x3b, 0x72, 0x50, 0x05, 0xbd,
  0x88, 0xdc, 0xa2, 0xbb, 0x58, 0x99, 0x16, 0x3c, 0xe8, 0xe6, 0xe6, 0x3c,
  0xc0, 0xfd, 0x40, 0x3c, 0xd4, 0x29, 0x42, 0x3c, 0xce, 0xab, 0x94, 0x3c,
  0x98, 0x54, 0xe4, 0x3b, 0x74, 0xd9, 0x15, 0xbc, 0xa4, 0x3b, 0x8f, 0x3c,
  0x5b, 0xdb, 0x01, 0xbd, 0x96, 0x0d, 0xb5, 0x3c, 0x50, 0xf0, 0x18, 0x3d,
  0xc2, 0x67, 0xf2, 0xbc, 0x58, 0x6a, 0x9a, 0xbb, 0xe0, 0xaf, 0x16, 0x3b,
  0x80, 0xe0, 0x1c, 0xba, 0xd2, 0xca, 0x68, 0xbc, 0x28, 0xbe, 0x30, 0xbc,
  0x24, 0xf6, 0x62, 0xbc, 0xcc, 0x20, 0xef, 0x3c, 0xba, 0xac, 0x90, 0x3c,
  0x46, 0xa5, 0x5a, 0xbc, 0xe0, 0x43, 0xcd, 0xbc, 0x6a, 0x4e, 0xe7, 0xbc,
  0xc2, 0x76, 0x6c, 0xbc, 0x66, 0xb9, 0x0d, 0x3d, 0x1f, 0x67, 0xb4, 0xbc,
  0x16, 0xdc, 0x09, 0xbc, 0x3c, 0x5e, 0x05, 0x3d, 0xcc, 0xa4, 0xbd, 0xbc,
  0x74, 0x23, 0xe3, 0xbc, 0x10, 0x9a, 0x10, 0xbb, 0xa0, 0xf6, 0x7a, 0xbb,
  0xd4, 0xc8, 0xf6, 0xbb, 0x2c, 0x09, 0x0e, 0x3d, 0xce, 0x8d, 0xab, 0xbc,
  0x38, 0xc2, 0xe6, 0xbc, 0x34, 0xe1, 0xcd, 0xbb, 0x4b, 0x6c, 0xab, 0xbc,
  0xd8, 0xe5, 0xa5, 0x3c, 0x80, 0xf8, 0xf1, 0x3c, 0x1a, 0x21, 0x81, 0x3c,
  0xa8, 0x4e, 0x8f, 0x3b, 0x84, 0x66, 0xd2, 0x3c, 0xf2, 0x53, 0x00, 0xbc,
  0xc0, 0x6b, 0x6c, 0x3b, 0x00, 0xbe, 0x9d, 0xb8, 0x08, 0x54, 0xc3, 0x3b,
  0x00, 0x73, 0x9a, 0xba, 0xe0, 0xe8, 0x18, 0x3d, 0x3c, 0x2a, 0x4e, 0x3c,
  0xd0, 0x02, 0xa4, 0x3b, 0x90, 0xd8, 0x93, 0x3b, 0x32, 0x40, 0x6b, 0xbc,
  0x2c, 0x45, 0xbf, 0x3c, 0x3c, 0xe1, 0x9b, 0x3c, 0xe4, 0xe8, 0x61, 0xbc,
  0xdc, 0x32, 0x6a, 0xbc, 0xf0, 0xd0, 0xed, 0x3c, 0x68, 0x44, 0x5d, 0x3c,
  0x26, 0xb9, 0x01, 0xbd, 0x62, 0x01, 0x01, 0x3d, 0x38, 0x90, 0x2e, 0xbc,
  0x50, 0x39, 0xe3, 0x3c, 0xbc, 0xeb, 0xed, 0x3c, 0x70, 0xb8, 0x54, 0xbc,
  0x28, 0xc6, 0xd8, 0x3c, 0xc0, 0xc0, 0xc8, 0x3a, 0xbf, 0x8d, 0xca, 0xbc,
  0xf0, 0x6c, 0x96, 0xbb, 0xc2, 0xcd, 0x10, 0x3d, 0x94, 0xd6, 0x0c, 0x3c,
  0x20, 0xee, 0xf7, 0x3b, 0x14, 0xc5, 0xd8, 0xbc, 0x5a, 0xd7, 0x0c, 0x3d,
  0x39, 0x00, 0x83, 0xbc, 0x88, 0x9b, 0xc7, 0xbc, 0x6c, 0x67, 0x34, 0x3c,
  0x90, 0x7a, 0x18, 0xbb, 0xc0, 0xe4, 0xaa, 0xba, 0xcc, 0x44, 0xe6, 0xbc,
  0x80, 0x91, 0x30, 0xbb, 0xe0, 0x7b, 0xb4, 0xba, 0x10, 0x52, 0xe3, 0x3c,
  0xc6, 0xd6, 0xdc, 0xbc, 0xc4, 0xbd, 0x07, 0x3c, 0xd8, 0x91, 0x15, 0xbc,
  0xf8, 0x58, 0xc6, 0x3b, 0x5e, 0xb9, 0x91, 0xbc, 0x00, 0x27, 0x03, 0x3d,
  0x80, 0x9d, 0x5b, 0x3a, 0x1b, 0x62, 0x02, 0xbd, 0xf8, 0x20, 0x94, 0x3c,
  0x32, 0xef, 0x36, 0xbc, 0x76, 0x56, 0x07, 0x3d, 0x50, 0x1d, 0xcf, 0xbb,
  0x04, 0xb3, 0x02, 0xbc, 0xdc, 0x9f, 0xe6, 0xbc, 0x20, 0xe1, 0xad, 0xbb,
  0x80, 0xb9, 0x10, 0xbd, 0x34, 0xec, 0xd2, 0x3c, 0xb0, 0xd4, 0x49, 0x3b,
  0x49, 0xbc, 0xf8, 0xbc, 0xe8, 0x55, 0xf1, 0x3c, 0x82, 0x8e, 0x90, 0x3c,
  0xb8, 0xbf, 0xcf, 0x3c, 0x7c, 0x77, 0xd4, 0x3c, 0xb4, 0x28, 0x0e, 0x3d,
  0xb0, 0x38, 0xf4, 0xbc, 0xa4, 0x86, 0x40, 0xbc, 0xe0, 0x11, 0xcc, 0xba,
  0x58, 0x99, 0xd8, 0x3c, 0x10, 0xb2, 0x4e, 0x3c, 0x40, 0x31, 0x11, 0xba,
  0x04, 0x50, 0x02, 0x3d, 0x43, 0x3c, 0x02, 0xbd, 0x90, 0xad, 0x19, 0xbb,
  0x88, 0xf2, 0xd4, 0xbc, 0xa0, 0x4c, 0x81, 0x3a, 0x22, 0xfe, 0x28, 0xbc,
  0x6f, 0xeb, 0xb3, 0xbc, 0xe7, 0x77, 0x07, 0xbd, 0x88, 0x6e, 0x84, 0x3c,
  0x18, 0xaf, 0x87, 0xbc, 0x01, 0x62, 0x0e, 0xbd, 0x60, 0xee, 0xf4, 0x3a,
  0xe0, 0x09, 0xed, 0x3c, 0x9e, 0xb0, 0x87, 0x3c, 0x2c, 0x8d, 0x3e, 0x3c,
  0xd6, 0x15, 0x00, 0xbd, 0x54, 0x9f, 0x92, 0xbc, 0x88, 0x23, 0xf7, 0xbc,
  0x9e, 0x3c, 0x0a, 0x3d, 0x70, 0x1b, 0xc8, 0xbc, 0x8e, 0x3e, 0x7a, 0xbc,
  0x00, 0x38, 0x23, 0x3c, 0x00, 0x26, 0x5a, 0xbb, 0x2a, 0x61, 0xf0, 0xbc,
  0xc4, 0x5c, 0xe3, 0x3c, 0x0c, 0x69, 0x4c, 0xbc, 0x8a, 0xba, 0xe7, 0xbc,
  0x76, 0x91, 0xb9, 0xbc, 0x20, 0x10, 0x0d, 0x3b, 0x00, 0xee, 0xdb, 0x38,
  0xaa, 0x7b, 0x1c, 0xbc, 0x94, 0x21, 0xcf, 0x3c, 0xc4, 0x3d, 0xf1, 0x3c,
  0x4c, 0x8b, 0xf0, 0x3c, 0x00, 0x0b, 0xc1, 0x39, 0xe0, 0x87, 0xeb, 0x3a,
  0x8e, 0x1d, 0x76, 0xbc, 0xd8, 0x2a, 0x03, 0xbd, 0x70, 0xc6, 0xeb, 0xbc,
  0xcc, 0x49, 0x4b, 0x3c, 0x30, 0xc0, 0x37, 0xbb, 0x9f, 0x9a, 0x07, 0xbd,
  0x2c, 0x69, 0xdb, 0xbc, 0xe4, 0xeb, 0x04, 0x3d, 0x40, 0x4e, 0xf7, 0xbc,
  0xb4, 0xc3, 0xa0, 0x3c, 0xa8, 0xb0, 0x41, 0x3c, 0x20, 0xc7, 0xc4, 0xba,
  0x9a, 0x92, 0xe4, 0xbc, 0x50, 0xfd, 0xf2, 0xbc, 0x46, 0xd7, 0x07, 0x3d,
  0xb6, 0xd5, 0x8b, 0x3c, 0x60, 0x41, 0xdc, 0xbc, 0xb2, 0x4d, 0x00, 0x3d,
  0x08, 0x85, 0x84, 0xbc, 0xb3, 0xdc, 0x0c, 0xbd, 0x9c, 0xf3, 0x3f, 0x3c,
  0x06, 0xe2, 0xc1, 0xbc, 0xcb, 0x1f, 0xfd, 0xbc, 0xce, 0x1b, 0x4e, 0xbc,
  0xe8, 0x04, 0x02, 0x3c, 0x34, 0x6f, 0xa6, 0x3c, 0x26, 0x8a, 0xe7, 0xbc,
  0x80, 0x6f, 0x13, 0x3a, 0x50, 0xe4, 0x58, 0xbc, 0x82, 0x8a, 0x01, 0x3d,
  0x5d, 0x01, 0xb7, 0xbc, 0x80, 0x94, 0x93, 0x3c, 0xe4, 0x5c, 0xf8, 0xbb,
  0x22, 0x4d, 0xa3, 0xbc, 0xa1, 0x06, 0x0b, 0xbd, 0x7a, 0x8c, 0x9c, 0x3c,
  0xb4, 0x8e, 0x75, 0x3c, 0xc0, 0x0d, 0xd9, 0xba, 0x7a, 0xdc, 0x98, 0x3c,
  0x70, 0x50, 0xcb, 0x3b, 0xd3, 0xad, 0xe8, 0xbc, 0x56, 0xe3, 0xca, 0x3c,
  0xc6, 0xcf, 0x06, 0xbd, 0xc4, 0x00, 0xd0, 0xbc, 0x8f, 0x3c, 0x19, 0xbd,
  0x44, 0x4c, 0x88, 0x3c, 0x62, 0x23, 0xca, 0x3c, 0xa8, 0xeb, 0x3c, 0x3c,
  0x8a, 0x15, 0xa5, 0xbc, 0x0e, 0xdc, 0xa0, 0x3c, 0x84, 0x4b, 0x03, 0x3d,
  0x20, 0x9c, 0xf6, 0x3c, 0xe8, 0x53, 0x63, 0x3c, 0x20, 0x87, 0x9f, 0x3a,
  0x11, 0x04, 0x12, 0xbd, 0x48, 0x2e, 0xbc, 0xbb, 0x56, 0xa4, 0x83, 0xbc,
  0x14, 0x4d, 0xab, 0x3c, 0x00, 0x74, 0xb5, 0xba, 0x02, 0x2f, 0x08, 0x3d,
  0x60, 0xdc, 0x27, 0x3c, 0x3c, 0xfc, 0xc5, 0xbc, 0xec, 0x28, 0xd3, 0x3c,
  0x26, 0x36, 0x01, 0x3d, 0xa7, 0x40, 0x03, 0xbd, 0x56, 0x70, 0xc6, 0x3c,
  0x28, 0x0e, 0xba, 0x3b, 0xe0, 0x6d, 0x06, 0x3d, 0x64, 0x51, 0xbd, 0xbc,
  0x70, 0x3e, 0x9f, 0x3c, 0x9e, 0x9c, 0x15, 0xbd, 0x8c, 0x61, 0xf6, 0x3c,
  0xe8, 0x04, 0xeb, 0x3b, 0x94, 0xc9, 0x9f, 0x3c, 0xab, 0x5f, 0x16, 0xbd,
  0xb0, 0xdd, 0x09, 0xbd, 0xae, 0xcc, 0x0c, 0x3d, 0x18, 0xa7, 0x07, 0xbc,
  0xe0, 0x2a, 0x59, 0x3c, 0x40, 0x89, 0x7c, 0xba, 0x9a, 0x8e, 0x08, 0xbc,
  0x98, 0x0c, 0xad, 0x3b, 0xa0, 0x2f, 0xc7, 0x3c, 0xac, 0x87, 0xd9, 0x3c,
  0xb0, 0x56, 0xb8, 0xbb, 0x12, 0xf0, 0xc8, 0xbc, 0x59, 0x9f, 0x83, 0xbc,
  0x50, 0xa2, 0x05, 0xbd, 0x2a, 0x40, 0x4c, 0xbc, 0x00, 0x98, 0x82, 0xb9,
  0xbb, 0x0d, 0x93, 0xbc, 0xc5, 0x14, 0x8f, 0xbc, 0x00, 0x9a, 0x76, 0xba,
  0xaa, 0x46, 0x40, 0xbc, 0x13, 0x44, 0xb3, 0xbc, 0xa8, 0x59, 0xdc, 0xbb,
  0xa0, 0xd2, 0xae, 0x3a, 0x50, 0x3e, 0x14, 0xbc, 0x44, 0xfb, 0xdc, 0x3c,
  0x14, 0xc5, 0x7b, 0xbc, 0x82, 0x9e, 0xbe, 0xbc, 0x9c, 0xce, 0xd8, 0xbc,
  0xa0, 0x47, 0xae, 0x3c, 0xa0, 0x06, 0x9f, 0x3b, 0xd4, 0x51, 0x50, 0xbc,
  0x42, 0x2f, 0xe3, 0xbc, 0x84, 0x1f, 0x04, 0x3d, 0x58, 0xf6, 0xb5, 0x3c,
  0xba, 0x13, 0xb9, 0xbc, 0x6e, 0xf9, 0x1f, 0xbc, 0x26, 0x5c, 0x8d, 0xbc,
  0x53, 0x8a, 0xad, 0xbc, 0xa0, 0x22, 0x06, 0x3c, 0xcf, 0x3a, 0x8f, 0xbc,
  0x80, 0x6b, 0xf5, 0x3c, 0xa4, 0x33, 0x51, 0x3c, 0x48, 0xf7, 0xd9, 0x3c,
  0x46, 0x7f, 0x1d, 0xbc, 0x40, 0x6f, 0x3a, 0x3b, 0xe8, 0x45, 0x0a, 0x3c,
  0x3c, 0x74, 0x17, 0x3d, 0x00, 0xf8, 0xe8, 0x3b, 0x97, 0xdd, 0xfc, 0xbc,
  0x20, 0x08, 0xb6, 0x3a, 0x40, 0xc1, 0x7c, 0x3a, 0x48, 0xae, 0x90, 0x3c,
  0x86, 0x73, 0xa2, 0xbc, 0x22, 0x5c, 0xa5, 0x3c, 0x74, 0xd2, 0x7c, 0xbc,
  0x44, 0x22, 0x2a, 0x3c, 0x3a, 0xbf, 0xbe, 0x3c, 0x20, 0x7a, 0x54, 0xbb,
  0x78, 0x01, 0xd1, 0x3c, 0x80, 0xb0, 0xd5, 0x39, 0x48, 0x24, 0xfd, 0x3b,
  0x40, 0xf6, 0x41, 0x3a, 0x7b, 0x40, 0xf4, 0xbc, 0x78, 0x44, 0xc3, 0xbb,
  0x9c, 0x74, 0xd9, 0x3c, 0x0e, 0xd3, 0x96, 0x3c, 0x88, 0x70, 0x3e, 0x3c,
  0x84, 0x35, 0x3d, 0x3c, 0x74, 0x47, 0xbc, 0x3c, 0xd0, 0x04, 0x44, 0xbb,
  0x30, 0xab, 0x61, 0xbb, 0xfc, 0xe2, 0x26, 0x3c, 0xaa, 0x11, 0xff, 0xbc,
  0xd8, 0x02, 0xec, 0x3c, 0x00, 0x2d, 0xff, 0x3c, 0x54, 0x2e, 0x06, 0x3d,
  0x95, 0x07, 0xed, 0xbc, 0x12, 0xf8, 0x7c, 0xbc, 0x14, 0x7c, 0xd7, 0x3c,
  0xc2, 0xdd, 0xa2, 0x3c, 0x3b, 0x8d, 0xff, 0xbc, 0xe0, 0x21, 0xb8, 0x3c,
  0x00, 0x84, 0x22, 0x3a, 0x6e, 0xf0, 0xc2, 0xbc, 0x94, 0xc6, 0x0f, 0xbd,
  0xd0, 0xd1, 0x3f, 0xbb, 0x9c, 0x19, 0x75, 0xbc, 0x06, 0x4b, 0x81, 0xbc,
  0xc8, 0xb0, 0x24, 0xbc, 0x68, 0x34, 0x88, 0x3c, 0x0c, 0xca, 0xed, 0xbb,
  0xec, 0x54, 0xd7, 0xbb, 0xd8, 0x5e, 0x8a, 0x3b, 0x54, 0xab, 0xea, 0x3c,
  0x24, 0x94, 0x1c, 0x3c, 0x90, 0x83, 0xa6, 0xbb, 0x36, 0x5f, 0xb0, 0x3c,
  0x3f, 0x41, 0xdc, 0xbc, 0xc4, 0xdb, 0x94, 0x3c, 0xc8, 0x98, 0xd6, 0x3c,
  0xb4, 0x8d, 0x7d, 0x3c, 0xa0, 0x60, 0x06, 0x3c, 0xfa, 0xa0, 0xe6, 0xbc,
  0x30, 0x17, 0xe6, 0x3c, 0x90, 0x62, 0xb7, 0xbc, 0x1c, 0x7d, 0xe7, 0x3c,
  0x9a, 0x69, 0x77, 0xbc, 0x25, 0xcf, 0x94, 0xbc, 0x00, 0xc2, 0xbb, 0xbb,
  0xd2, 0xb6, 0x07, 0x3d, 0xb8, 0x25, 0x06, 0x3c, 0x44, 0x9f, 0x11, 0xbd,
  0x28, 0xa6, 0xbf, 0x3b, 0x1e, 0xb3, 0xac, 0xbc, 0xb2, 0x9c, 0x4c, 0xbc,
  0x80, 0xca, 0x69, 0xbc, 0x70, 0xb9, 0x60, 0x3b, 0x1f, 0x0d, 0x9e, 0xbc,
  0x70, 0xcd, 0x03, 0xbc, 0xcb, 0x50, 0xa1, 0xbc, 0xce, 0x18, 0x73, 0xbc,
  0x28, 0x64, 0xa0, 0xbb, 0x66, 0x13, 0x69, 0xbc, 0xce, 0xed, 0x00, 0x3d,
  0x60, 0x0d, 0x04, 0xbb, 0x58, 0xa8, 0xd1, 0x3c, 0x3d, 0x4c, 0x18, 0xbd,
  0x40, 0xb8, 0xbc, 0x3b, 0x00, 0x42, 0x04, 0x3d, 0xbc, 0x0c, 0x17, 0x3d,
  0x38, 0x69, 0x3b, 0x3c, 0x41, 0xc9, 0xf6, 0xbc, 0xf6, 0xf7, 0x12, 0x3d,
  0x4a, 0x5d, 0x07, 0xbc, 0xb2, 0x26, 0x91, 0x3c, 0x52, 0x52, 0x86, 0xbc,
  0xd5, 0xb6, 0xdd, 0xbc, 0x42, 0x53, 0xd2, 0xbc, 0xe4, 0x65, 0x05, 0x3d,
  0x60, 0x4d, 0x35, 0x3c, 0x50, 0x8c, 0xaa, 0x3c, 0xa5, 0x2f, 0xe0, 0xbc,
  0xc0, 0xea, 0x0c, 0xba, 0x50, 0x42, 0x47, 0xbb, 0xec, 0xe4, 0xef, 0xbb,
  0xf4, 0x83, 0xff, 0x3c, 0x70, 0x1c, 0xd6, 0x3b, 0x5e, 0x8f, 0x1c, 0xbc,
  0xf8, 0x2d, 0xe7, 0x3b, 0x70, 0x09, 0xeb, 0x3c, 0xca, 0x0b, 0x2f, 0xbc,
  0xc4, 0x2e, 0x15, 0x3d, 0x67, 0x4a, 0xd9, 0x3d, 0x9a, 0x87, 0xc6, 0x3e,
  0xa8, 0xcf, 0x29, 0xbe, 0x24, 0xf3, 0x6e, 0x3e, 0x1d, 0x12, 0x3c, 0xbe,
  0xa2, 0xa3, 0xad, 0x3d, 0xfb, 0x32, 0x9d, 0x3d, 0x78, 0x3d, 0x4a, 0x3e,
  0x0e, 0x44, 0xbe, 0xbd, 0xfe, 0x06, 0x69, 0x3e, 0x8d, 0x9c, 0x0c, 0xbe,
  0x54, 0x67, 0x9d, 0x3d, 0xd9, 0xbe, 0xb8, 0x3d, 0xb6, 0xb8, 0x7c, 0x3e,
  0x36, 0x0d, 0xc7, 0xbd, 0x9f, 0xde, 0x59, 0x3e, 0x63, 0xfd, 0x35, 0xbe,
  0xcb, 0x3e, 0x81, 0x3d, 0xb5, 0xbe, 0x80, 0x3d, 0x84, 0x12, 0x8b, 0x3e,
  0x43, 0x99, 0xc0, 0xbd, 0xd0, 0xc5, 0x63, 0x3e, 0x94, 0x2c, 0x31, 0xbe,
  0xb7, 0x25, 0xbf, 0x3d, 0x62, 0xbd, 0xcc, 0x3d, 0xaa, 0x14, 0xa3, 0x3e,
  0x66, 0x0c, 0xa8, 0xbd, 0xaf, 0xba, 0x69, 0x3e, 0x4f, 0xc1, 0x27, 0xbe,
  0xc9, 0xdd, 0x9f, 0x3d, 0xd4, 0x7b, 0x04, 0x3e, 0xe9, 0xbe, 0x9d, 0x3e,
  0x0d, 0x32, 0xeb, 0xbd, 0xc8, 0x17, 0x66, 0x3e, 0x92, 0x32, 0x18, 0xbe,
  0x09, 0xec, 0x9a, 0x3d, 0xcc, 0x85, 0xd9, 0x3d, 0x75, 0xbf, 0x9e, 0x3e,
  0xab, 0xd9, 0xb2, 0xbd, 0xef, 0x02, 0x60, 0x3e, 0xad, 0x6f, 0xe0, 0xbd,
  0x3b, 0x05, 0x96, 0x3d, 0x51, 0xb1, 0xfb, 0x3d, 0x63, 0xe9, 0xc8, 0x3e,
  0xb8, 0x40, 0xd1, 0xbd, 0x8b, 0xe4, 0x61, 0x3e, 0x7d, 0x10, 0xdf, 0xbd,
  0x88, 0x02, 0x1b, 0x3d, 0xdf, 0xce, 0x95, 0x3d, 0x83, 0xae, 0xd2, 0x3e,
  0x83, 0x10, 0xc1, 0xbd, 0xb1, 0x23, 0x29, 0x3e, 0xc1, 0x81, 0x02, 0xbe,
  0xc8, 0x13, 0x72, 0x3d, 0x9b, 0xc5, 0xc8, 0x3d, 0x30, 0x76, 0xd0, 0x3e,
  0x21, 0x7a, 0xe0, 0xbd, 0x05, 0x0b, 0x40, 0x3e, 0x3e, 0x87, 0xcc, 0xbd,
  0x32, 0x20, 0xb9, 0x3d, 0x89, 0x90, 0xed, 0x3d, 0x01, 0x10, 0xc0, 0x3e,
  0xfe, 0x30, 0x24, 0xbe, 0x40, 0x4c, 0x33, 0x3e, 0x8d, 0xec, 0xee, 0xbd,
  0xc9, 0x50, 0x80, 0x3d, 0x59, 0xef, 0xb5, 0x3d, 0xb2, 0x13, 0xb9, 0x3e,
  0x3e, 0x6f, 0x1a, 0xbe, 0xef, 0x59, 0x33, 0x3e, 0xdc, 0x9f, 0x0d, 0xbe,
  0x20, 0x99, 0x99, 0x3d, 0xe8, 0x6a, 0xc9, 0x3d, 0x2a, 0xb8, 0xb7, 0x3e,
  0xbc, 0x91, 0x1d, 0xbe, 0xba, 0x0f, 0x45, 0x3e, 0xeb, 0xdd, 0x84, 0xbd,
  0x0d, 0x7c, 0x48, 0x3d, 0x06, 0x80, 0x26, 0x3e, 0x3c, 0xd1, 0xc2, 0x3e,
  0x8e, 0x3d, 0x21, 0xbe, 0x96, 0xc4, 0x38, 0x3e, 0x71, 0x54, 0xa3, 0xbd,
  0xc2, 0x13, 0x9b, 0x3c, 0xb4, 0x50, 0xe9, 0x3d, 0x25, 0xb6, 0xca, 0x3e,
  0x10, 0x22, 0x4b, 0xbe, 0x50, 0xa3, 0x13, 0x3e, 0xda, 0x58, 0x5e, 0xbd,
  0x82, 0x34, 0x13, 0x3d, 0x2e, 0x6f, 0x13, 0x3e, 0x60, 0x1f, 0xe1, 0x3e,
  0xb8, 0xfc, 0x69, 0xbe, 0xd1, 0xbc, 0x01, 0x3e, 0x4f, 0x46, 0x89, 0xbd,
  0xfc, 0x24, 0x27, 0x3d, 0x2a, 0xd3, 0x02, 0x3e, 0xa9, 0xc5, 0xe9, 0x3e,
  0xaa, 0xbf, 0x8e, 0xbe, 0x26, 0xea, 0xf6, 0x3d, 0xa8, 0xbb, 0xc8, 0xbd,
  0x64, 0x38, 0x06, 0x3d, 0xc2, 0xe6, 0x13, 0x3e, 0x3e, 0x6f, 0xde, 0x3e,
  0xb7, 0xb8, 0x95, 0xbe, 0xd5, 0xd7, 0x22, 0x3e, 0x56, 0xcb, 0x41, 0xbd,
  0x4a, 0xab, 0x98, 0xbb, 0x04, 0x98, 0x12, 0x3e, 0x9b, 0x99, 0xde, 0x3e,
  0x8d, 0xf6, 0x96, 0xbe, 0x39, 0x50, 0xf1, 0x3d, 0x81, 0x0d, 0x00, 0xbd,
  0x4a, 0x3f, 0x59, 0xbd, 0xe7, 0xf5, 0x47, 0x3e, 0x4a, 0x2c, 0xea, 0x3e,
  0xb4, 0x01, 0x98, 0xbe, 0x30, 0xa7, 0x90, 0x3d, 0xca, 0x61, 0x79, 0xbd,
  0xbb, 0xde, 0x81, 0xbd, 0xe8, 0x87, 0x44, 0x3e, 0x6c, 0xdb, 0xd5, 0x3e,
  0x14, 0x8b, 0xa1, 0xbe, 0xd4, 0x43, 0x8c, 0x3d, 0xe6, 0x04, 0x37, 0xbc,
  0xeb, 0x71, 0x60, 0xbd, 0x3b, 0x9b, 0x43, 0x3e, 0xfc, 0x95, 0xf8, 0x3e,
  0x64, 0x70, 0x9d, 0xbe, 0xdf, 0x24, 0xbe, 0x3c, 0x30, 0x0e, 0x49, 0xbd,
  0xc8, 0x71, 0x0b, 0xbd, 0xc4, 0xe9, 0x5e, 0x3e, 0x6e, 0x56, 0xeb, 0x3e,
  0xa7, 0x2e, 0xc5, 0xbe, 0xd8, 0x37, 0x36, 0x3d, 0xe6, 0xa8, 0xe0, 0x3b,
  0x36, 0x2d, 0x15, 0xbd, 0xf7, 0xb7, 0x1a, 0x3e, 0x6a, 0x6e, 0xc5, 0x3e,
  0xc0, 0xf7, 0xb1, 0xbe, 0x51, 0xfb, 0xfe, 0x3c, 0x16, 0x8d, 0xa2, 0xbc,
  0x09, 0xb0, 0x4b, 0xbd, 0xfd, 0x3c, 0x37, 0x3e, 0x60, 0xf3, 0xbf, 0x3e,
  0x2d, 0x6e, 0xbb, 0xbe, 0x17, 0x7d, 0xcf, 0x3c, 0x6d, 0x97, 0x3d, 0x3b,
  0xd1, 0xbd, 0x50, 0xbd, 0x0f, 0x09, 0x4c, 0x3e, 0x2b, 0x1e, 0xd4, 0x3e,
  0x7d, 0x84, 0xc1, 0xbe, 0x77, 0xf8, 0xdb, 0x3b, 0x75, 0x04, 0x37, 0x3c,
  0x4e, 0xa8, 0x08, 0xbd, 0xe8, 0xd2, 0x1d, 0x3e, 0xa3, 0x9e, 0xd8, 0x3e,
  0xd3, 0x89, 0xc3, 0xbe, 0x57, 0x08, 0x9f, 0xbc, 0xd9, 0x71, 0x0f, 0x3d,
  0xd2, 0xa9, 0xc4, 0xbd, 0xbb, 0x82, 0x2b, 0x3e, 0x25, 0x3d, 0xdc, 0x3e,
  0xdd, 0x01, 0xca, 0xbe, 0x5b, 0xa9, 0xbd, 0xbd, 0x08, 0x4b, 0x7f, 0x3c,
  0x10, 0x45, 0xaf, 0xbd, 0xc5, 0x83, 0x19, 0x3e, 0x79, 0x5f, 0xbe, 0x3e,
  0xb7, 0xf9, 0xbd, 0xbe, 0x5b, 0x17, 0xf3, 0xbd, 0x9a, 0xfd, 0x31, 0x3d,
  0xcd, 0x78, 0xc4, 0xbd, 0xa6, 0xa7, 0x04, 0x3e, 0x24, 0xc5, 0xb4, 0x3e,
  0xfd, 0xac, 0x8f, 0xbe, 0x5b, 0xa6, 0xf6, 0xbd, 0x5e, 0xc4, 0x91, 0x3d,
  0x8f, 0xe0, 0x01, 0xbe, 0x53, 0xf3, 0x8d, 0x3d, 0xb3, 0xa3, 0xad, 0x3e,
  0x52, 0xa0, 0x8f, 0xbe, 0x86, 0x53, 0x3f, 0xbe, 0x30, 0xa3, 0xc3, 0x3d,
  0x3f, 0xcb, 0x1c, 0xbe, 0xe4, 0x91, 0xc3, 0x3d, 0x20, 0xf3, 0xb3, 0x3e,
  0x12, 0xb5, 0x8a, 0xbe, 0x07, 0xd1, 0x51, 0xbe, 0x6e, 0xbd, 0xa2, 0x3d,
  0x04, 0xfe, 0x09, 0xbe, 0xaf, 0xda, 0x87, 0x3d, 0x43, 0x6a, 0x8b, 0x3e,
  0x80, 0x15, 0x87, 0xbe, 0x88, 0xd4, 0x4d, 0xbe, 0x70, 0xe3, 0xf8, 0x3d,
  0xc2, 0x61, 0x26, 0xbe, 0x01, 0x63, 0x72, 0xbc, 0x0a, 0x3b, 0x5e, 0x3e,
  0xb3, 0x3c, 0xa4, 0xbe, 0x83, 0xdc, 0x8d, 0xbe, 0x6c, 0x19, 0x06, 0x3e,
  0x76, 0x4e, 0x41, 0xbe, 0x87, 0x6b, 0x33, 0xbc, 0xbe, 0xc6, 0x6a, 0x3e,
  0x29, 0xae, 0x89, 0xbe, 0xd2, 0x3b, 0x8a, 0xbe, 0x0c, 0x95, 0x0f, 0x3e,
  0x92, 0x17, 0x54, 0xbe, 0xee, 0xf1, 0xd0, 0xbc, 0xb2, 0xdb, 0x30, 0x3e,
  0x8b, 0xa4, 0x99, 0xbe, 0xf3, 0xbd, 0xb1, 0xbe, 0x5d, 0xfc, 0x0c, 0x3e,
  0x01, 0xaf, 0x37, 0xbe, 0x83, 0x2b, 0x08, 0xbd, 0x05, 0x26, 0x1f, 0x3e,
  0x09, 0x07, 0x68, 0xbe, 0xdd, 0x0e, 0xab, 0xbe, 0xff, 0xba, 0x3b, 0x3e,
  0x66, 0xbb, 0x6a, 0xbe, 0x3d, 0x0d, 0x81, 0xbd, 0xe0, 0x32, 0xba, 0x3d,
  0x4b, 0x97, 0x79, 0xbe, 0x60, 0x27, 0xd0, 0xbe, 0xa2, 0x19, 0x28, 0x3e,
  0x57, 0xc8, 0x80, 0xbe, 0xfe, 0x45, 0x15, 0xbd, 0x65, 0x00, 0x4b, 0x3c,
  0x57, 0xa7, 0x29, 0xbe, 0x78, 0x8b, 0xd0, 0xbe, 0x34, 0x09, 0x5d, 0x3e,
  0x30, 0x23, 0x78, 0xbe, 0x8a, 0xdb, 0xf4, 0xbc, 0xdc, 0x84, 0x75, 0x3c,
  0x3f, 0xc1, 0x3c, 0xbe, 0x9a, 0x5c, 0xe6, 0xbe, 0xe6, 0xfc, 0x27, 0x3e,
  0x8c, 0xe1, 0x65, 0xbe, 0x35, 0x4c, 0x62, 0xbc, 0xc0, 0x20, 0x00, 0x3d,
  0x87, 0x8e, 0x15, 0xbe, 0x9a, 0xeb, 0xd6, 0xbe, 0x27, 0x2f, 0x4a, 0x3e,
  0xe8, 0xce, 0x5a, 0xbe, 0x95, 0xe5, 0x50, 0x3d, 0x70, 0xbb, 0x5e, 0x3d,
  0x82, 0x1a, 0x2f, 0xbe, 0xf6, 0x89, 0xf6, 0xbe, 0xb4, 0x34, 0x70, 0x3e,
  0xd7, 0xeb, 0x43, 0xbe, 0x71, 0x6e, 0xbc, 0x3d, 0x90, 0xa8, 0x57, 0x3c,
  0xd3, 0x09, 0x96, 0xbd, 0xf8, 0xfd, 0xe5, 0xbe, 0x1d, 0x66, 0x57, 0x3e,
  0x16, 0x86, 0x4d, 0xbe, 0xc1, 0xbb, 0xda, 0x3d, 0x98, 0xb1, 0xe9, 0x3c,
  0xff, 0x17, 0x8d, 0xbd, 0x3f, 0xd1, 0xf9, 0xbe, 0xf3, 0xe3, 0x45, 0x3e,
  0x6e, 0x36, 0x22, 0xbe, 0x12, 0x8d, 0xb2, 0x3d, 0x52, 0x82, 0x97, 0x3d,
  0x15, 0x53, 0x41, 0xbb, 0xac, 0x47, 0xe6, 0xbe, 0x9f, 0x76, 0x80, 0x3e,
  0x52, 0x61, 0x28, 0xbe, 0xd9, 0x40, 0x29, 0x3e, 0x0c, 0xe3, 0x02, 0x3e,
  0x09, 0xd5, 0x8e, 0xba, 0x38, 0x5d, 0xfa, 0xbe, 0x3c, 0xbd, 0x78, 0x3e,
  0x59, 0x8b, 0x53, 0xbe, 0x7c, 0x30, 0x1b, 0x3e, 0xcb, 0x8e, 0x38, 0x3e,
  0x07, 0xb6, 0x2b, 0x3c, 0xdf, 0x51, 0xf1, 0xbe, 0xd6, 0x6a, 0x85, 0x3e,
  0x41, 0x26, 0x1a, 0xbe, 0xb4, 0x61, 0x46, 0x3e, 0xa7, 0x34, 0x75, 0x3e,
  0x23, 0x69, 0xad, 0xbc, 0x4a, 0xbe, 0xf8, 0xbe, 0x64, 0x9b, 0x84, 0x3e,
  0xfd, 0xd9, 0x0d, 0xbe, 0xb6, 0x57, 0x43, 0x3e, 0x8a, 0x8d, 0x96, 0x3e,
  0xcc, 0xb7, 0x17, 0xbd, 0x07, 0xce, 0xe8, 0xbe, 0xa4, 0xc2, 0x66, 0x3e,
  0xcc, 0xa0, 0x3a, 0xbe, 0xb3, 0xe5, 0x2c, 0x3e, 0x3a, 0x3e, 0xb7, 0x3e,
  0x4d, 0x59, 0x87, 0x3b, 0xf7, 0x71, 0xd7, 0xbe, 0xd2, 0xa4, 0x86, 0x3e,
  0x4d, 0x4d, 0x5b, 0xbe, 0x66, 0xba, 0x50, 0x3e, 0xa9, 0xf8, 0xb9, 0x3e,
  0x94, 0x13, 0x27, 0x3c, 0xc4, 0x7b, 0xe2, 0xbe, 0x6d, 0x16, 0x76, 0x3e,
  0xc9, 0x48, 0x34, 0xbe, 0x22, 0xe2, 0x51, 0x3e, 0x54, 0xf2, 0x9e, 0x3e,
  0x31, 0x6b, 0x4b, 0x3d, 0x68, 0x8e, 0xcf, 0xbe, 0x55, 0xcc, 0x8a, 0x3e,
  0xf0, 0xa2, 0x38, 0xbe, 0xb9, 0x2a, 0x4c, 0x3e, 0x56, 0x1f, 0x8e, 0x3e,
  0xe3, 0x9d, 0x19, 0x3d, 0xec, 0xd1, 0xb0, 0xbe, 0x9d, 0x96, 0x7c, 0x3e,
  0xcb, 0x24, 0x57, 0xbe, 0xf5, 0x4b, 0x63, 0x3e, 0xd9, 0x9f, 0x8a, 0x3e,
  0xd6, 0xa7, 0x82, 0x3d, 0x05, 0x55, 0xbf, 0xbe, 0x94, 0xed, 0x86, 0x3e,
  0x52, 0x2b, 0x76, 0xbe, 0x98, 0x6e, 0x4f, 0x3e, 0x16, 0x70, 0x87, 0x3e,
  0x41, 0xac, 0xd6, 0x3c, 0x22, 0x3b, 0xb3, 0xbe, 0x68, 0x95, 0x7c, 0x3e,
  0xdb, 0xea, 0x83, 0xbe, 0x6d, 0x40, 0x1b, 0x3e, 0xaf, 0x51, 0x69, 0x3e,
  0xde, 0xed, 0x95, 0x3d, 0xe3, 0x9f, 0x9e, 0xbe, 0x41, 0x6a, 0x68, 0x3e,
  0x3d, 0x15, 0x68, 0xbe, 0xcd, 0xec, 0x26, 0x3e, 0xf3, 0x08, 0x49, 0x3e,
  0x6f, 0x7e, 0x02, 0x3e, 0x92, 0xf0, 0xb8, 0xbe, 0x6f, 0xba, 0x84, 0x3e,
  0x95, 0x9b, 0x5a, 0xbe, 0x71, 0xe9, 0x2e, 0x3e, 0x2e, 0x2f, 0x27, 0x3e,
  0x7a, 0x0b, 0x28, 0x3e, 0x2e, 0xbe, 0x9f, 0xbe, 0x8e, 0x3e, 0x51, 0x3e,
  0xa1, 0x03, 0x89, 0xbe, 0xf9, 0xba, 0x1f, 0x3e, 0x11, 0x7d, 0xfc, 0x3d,
  0x79, 0xe0, 0x41, 0x3e, 0x7a, 0xd2, 0x8e, 0xbe, 0x6e, 0x13, 0x65, 0x3e,
  0x3e, 0x78, 0x63, 0xbe, 0x22, 0xe9, 0x24, 0x3e, 0x57, 0x8c, 0x8e, 0x3d,
  0xce, 0xd6, 0x3e, 0x3e, 0xd3, 0x81, 0x80, 0xbe, 0x6e, 0x70, 0x83, 0x3e,
  0x3f, 0x5f, 0x80, 0xbe, 0xf8, 0x3c, 0x1a, 0x3e, 0x3c, 0x05, 0xc6, 0x3d,
  0xa9, 0x12, 0x6c, 0x3e, 0x9b, 0x38, 0x93, 0xbe, 0x0a, 0x29, 0x3d, 0x3e,
  0x24, 0xbf, 0x80, 0xbe, 0x3d, 0x96, 0x0a, 0x3e, 0x53, 0x6c, 0xd9, 0x3c,
  0x1a, 0x73, 0x7a, 0x3e, 0x2b, 0x80, 0x86, 0xbe, 0x89, 0xd5, 0x47, 0x3e,
  0xf8, 0x4c, 0x45, 0xbe, 0x97, 0x9a, 0xc9, 0x3d, 0xd2, 0x20, 0x91, 0x3d,
  0xd4, 0x9d, 0x4a, 0x3e, 0x1f, 0x34, 0x84, 0xbe, 0xfb, 0xf9, 0x72, 0x3e,
  0x6e, 0x2a, 0x44, 0xbe, 0x18, 0x01, 0x62, 0x3d, 0x2b, 0xfe, 0x90, 0x3d,
  0xef, 0x8c, 0x36, 0x3e, 0x8b, 0x6d, 0x8d, 0xbe, 0x93, 0x07, 0x60, 0x3e,
  0xc4, 0x24, 0x35, 0xbe, 0x0a, 0x9b, 0x6e, 0x3d, 0xb5, 0x78, 0x52, 0x3d,
  0x13, 0xff, 0x71, 0x3e, 0x3d, 0xe0, 0x83, 0xbe, 0xa3, 0xa7, 0x5b, 0x3e,
  0x9b, 0x7f, 0x26, 0xbe, 0x90, 0xd9, 0x90, 0x3d, 0xae, 0x3e, 0xd3, 0x3d,
  0xcf, 0xf9, 0x7b, 0x3e, 0xf9, 0x85, 0x54, 0xbe, 0x3e, 0x28, 0x53, 0x3e,
  0x64, 0x8c, 0x1f, 0xbe, 0x1f, 0x12, 0x48, 0x3d, 0x88, 0x96, 0xa6, 0x3d,
  0x23, 0x02, 0x57, 0x3e, 0x61, 0xd9, 0x77, 0xbe, 0x08, 0x43, 0x4b, 0x3e,
  0xf5, 0xf5, 0x02, 0xbe, 0xd2, 0xf4, 0x8b, 0x3d, 0xbe, 0x86, 0xef, 0x3d,
  0x78, 0xcd, 0x59, 0x3e, 0x76, 0x40, 0x80, 0xbe, 0xf1, 0xe7, 0x50, 0x3e,
  0x4a, 0x63, 0x1d, 0xbe, 0x67, 0x83, 0xd0, 0x3d, 0xe1, 0x6e, 0x06, 0x3e,
  0xfc, 0xa9, 0x20, 0x3e, 0x84, 0x59, 0x7d, 0xbe, 0xc4, 0x3f, 0x62, 0x3e,
  0xc1, 0xae, 0x17, 0xbe, 0x43, 0x39, 0xb3, 0x3d, 0x3c, 0x8c, 0x2b, 0x3e,
  0xcd, 0x71, 0x31, 0x3e, 0x68, 0x51, 0x57, 0xbe, 0x49, 0x86, 0x4a, 0x3e,
  0x0d, 0xaa, 0x04, 0xbe, 0xdc, 0xc4, 0xbe, 0x3d, 0xa8, 0x7a, 0xfe, 0x3d,
  0x7f, 0x97, 0x0c, 0x3e, 0xca, 0x44, 0x84, 0xbe, 0xd4, 0x87, 0x7f, 0x3e,
  0x9e, 0x5e, 0xf0, 0xbd, 0xab, 0xfc, 0xbd, 0x3c, 0x65, 0x5b, 0x1f, 0x3e,
  0x43, 0x32, 0xa0, 0x3d, 0x39, 0x18, 0x3d, 0xbe, 0x4f, 0x26, 0x78, 0x3e,
  0x5b, 0xb0, 0xd3, 0xbd, 0xec, 0xb1, 0x34, 0x3d, 0x21, 0x08, 0xe8, 0x3d,
  0x7a, 0xec, 0xd9, 0x3d, 0x06, 0x72, 0x57, 0xbe, 0x0f, 0xbd, 0x6c, 0x3e,
  0x5c, 0xf2, 0xea, 0xbd, 0x4f, 0xfe, 0x23, 0x3d, 0x58, 0xed, 0xc3, 0x3d,
  0xd0, 0xc2, 0x4c, 0x3d, 0xf0, 0xed, 0x49, 0xbe, 0x70, 0xa6, 0x35, 0x3e,
  0x83, 0x28, 0x0d, 0xbe, 0xfb, 0xf8, 0x4f, 0x3d, 0xae, 0x34, 0xde, 0x3d,
  0xde, 0x39, 0xcd, 0x3d, 0xa2, 0x71, 0x5e, 0xbe, 0x24, 0x7b, 0x5c, 0x3e,
  0x49, 0x53, 0xbf, 0xbd, 0xfd, 0x62, 0x64, 0x3c, 0xf4, 0x8d, 0x0c, 0x3e,
  0x4a, 0xf2, 0x0b, 0x3d, 0xa0, 0x3b, 0x53, 0xbe, 0x9d, 0x7d, 0x24, 0x3e,
  0x7c, 0x44, 0xb4, 0xbd, 0x7a, 0xc8, 0x9a, 0x3d, 0xcc, 0xee, 0x30, 0x3e,
  0x9f, 0x17, 0xa1, 0x3d, 0xe8, 0x00, 0x1c, 0xbe, 0xc3, 0x8e, 0x28, 0x3e,
  0xd0, 0x5c, 0xf9, 0xbd, 0x9c, 0x72, 0x10, 0x3d, 0x3e, 0x43, 0x3b, 0x3e,
  0xbb, 0xd2, 0xbe, 0x3d, 0x5a, 0x6f, 0x4d, 0xbe, 0x99, 0x3a, 0x3d, 0x3e,
  0xe1, 0x9e, 0xd0, 0xbd, 0x24, 0x0a, 0x58, 0x3b, 0x76, 0x12, 0x11, 0x3e,
  0x13, 0xba, 0x84, 0x3d, 0xe5, 0xdd, 0x17, 0xbe, 0x20, 0xb4, 0x3e, 0x3e,
  0x10, 0x48, 0xab, 0xbd, 0xd3, 0x01, 0xac, 0xb9, 0xc3, 0xdf, 0x9b, 0x3d,
  0xa2, 0x2f, 0xe4, 0x3d, 0xb7, 0x1b, 0x08, 0xbe, 0xad, 0x7b, 0x06, 0x3e,
  0xfb, 0x94, 0x0d, 0xbe, 0xfc, 0x49, 0x18, 0x3d, 0x02, 0x5b, 0x5e, 0x3d,
  0x3d, 0x3a, 0x91, 0x3d, 0x4b, 0x1b, 0xfc, 0xbd, 0xc6, 0x5a, 0x25, 0x3e,
  0xa1, 0x40, 0x01, 0xbe, 0xb2, 0xeb, 0x88, 0x3c, 0xe2, 0x72, 0xb4, 0x3d,
  0x94, 0xc3, 0x00, 0xbd, 0x38, 0xce, 0xd0, 0xbd, 0x32, 0x8f, 0x04, 0x3e,
  0x68, 0x0c, 0xda, 0xbd, 0xb9, 0x17, 0x7c, 0x3c, 0x87, 0xb4, 0xcf, 0x3d,
  0x50, 0x60, 0x73, 0xbd, 0x22, 0x2f, 0xe0, 0xbd, 0xca, 0x9c, 0x0c, 0x3e,
  0xf6, 0x91, 0x03, 0xbe, 0x92, 0x6b, 0x1a, 0x3d, 0xc4, 0xcf, 0xed, 0x3d,
  0x0c, 0x00, 0xd3, 0xbd, 0x03, 0xcc, 0xd4, 0xbd, 0x6d, 0xad, 0x02, 0x3e,
  0x57, 0x5e, 0xd1, 0xbd, 0x20, 0xd2, 0x88, 0x3c, 0xdb, 0x63, 0xaa, 0x3d,
  0x3a, 0xde, 0x90, 0xbd, 0x46, 0x14, 0xfe, 0xbd, 0xdd, 0x14, 0xfc, 0x3d,
  0xe0, 0xfa, 0x1a, 0xbe, 0xeb, 0x3a, 0xa1, 0x3c, 0x60, 0xd0, 0xe0, 0x3d,
  0x44, 0xe5, 0xfe, 0xbc, 0x45, 0x78, 0x0f, 0xbe, 0x80, 0x5c, 0xb1, 0x3d,
  0x75, 0x33, 0x02, 0xbe, 0xfd, 0x08, 0xc8, 0xbb, 0xbd, 0x7d, 0x9a, 0x3d,
  0xda, 0x30, 0x84, 0xbd, 0xb9, 0x66, 0x0c, 0xbe, 0xd7, 0xad, 0x80, 0x3d,
  0x42, 0x9d, 0xea, 0xbd, 0x49, 0x4c, 0x8f, 0xbc, 0x29, 0x13, 0x23, 0xbd,
  0x8f, 0x66, 0x6e, 0xbd, 0xe0, 0x17, 0x05, 0xbe, 0x08, 0x0e, 0xd0, 0x3d,
  0x95, 0xaf, 0x15, 0xbe, 0x18, 0x43, 0x3c, 0xbd, 0x41, 0xc4, 0x41, 0xbd,
  0x18, 0x19, 0x02, 0xbd, 0xf0, 0x85, 0x8b, 0xbd, 0x3b, 0x9f, 0xa1, 0x3d,
  0x51, 0xe6, 0xc6, 0xbd, 0x00, 0x97, 0xf1, 0xbc, 0x61, 0x63, 0xf4, 0xbd,
  0x28, 0x49, 0x77, 0xbd, 0x36, 0x03, 0xf2, 0xbd, 0x62, 0xc5, 0x17, 0x3d,
  0x0d, 0x00, 0xcc, 0xbd, 0xa6, 0x7f, 0x95, 0xbd, 0xc0, 0xca, 0x92, 0xbd,
  0xd8, 0x79, 0xae, 0xbd, 0x33, 0xcd, 0x09, 0xbe, 0x1d, 0x26, 0x98, 0x3d,
  0xda, 0x21, 0x24, 0xbe, 0xf0, 0xab, 0x9c, 0xbd, 0x24, 0xb0, 0x92, 0xbd,
  0xfb, 0x42, 0xdb, 0xbd, 0x61, 0x17, 0x15, 0xbe, 0x90, 0x40, 0x49, 0x3d,
  0x4d, 0xa2, 0x12, 0xbe, 0xcc, 0xd8, 0xc3, 0xbd, 0xa5, 0xba, 0x76, 0xbd,
  0xcf, 0x13, 0x8a, 0xbd, 0xdd, 0x3e, 0x15, 0xbe, 0x16, 0x67, 0xeb, 0x3c,
  0xf0, 0xe5, 0xea, 0xbd, 0xa8, 0xdc, 0xa3, 0xbd, 0xb4, 0xb4, 0x0e, 0xbe,
  0x49, 0x0c, 0xfe, 0xbd, 0x29, 0x06, 0x1b, 0xbe, 0xb6, 0x90, 0xb4, 0x3b,
  0x7f, 0x36, 0xe3, 0xbd, 0x4d, 0x7f, 0xc9, 0xbd, 0xef, 0x9d, 0x08, 0xbe,
  0x56, 0x98, 0xb7, 0xbd, 0x85, 0x41, 0x1e, 0xbe, 0x19, 0x3b, 0x8b, 0x3c,
  0x8f, 0x24, 0xc2, 0xbd, 0x77, 0x01, 0x7e, 0xbd, 0xa8, 0xa4, 0x1e, 0xbe,
  0xb7, 0xcf, 0xcc, 0xbd, 0x02, 0xdd, 0xfe, 0xbd, 0x76, 0x5a, 0x26, 0x3d,
  0x4c, 0x86, 0xa3, 0xbd, 0x9a, 0xc2, 0xd1, 0xbd, 0x5a, 0x70, 0x31, 0xbe,
  0x6e, 0xad, 0x91, 0xbd, 0x1e, 0xfa, 0x3f, 0xbe, 0xb9, 0x0b, 0x18, 0x3d,
  0x9b, 0xbe, 0x48, 0xbd, 0x06, 0x40, 0x5a, 0xbd, 0x9e, 0x55, 0x06, 0xbe,
  0xe1, 0x1e, 0x1a, 0xbd, 0xed, 0x77, 0x63, 0xbe, 0xcf, 0xbc, 0x57, 0x3d,
  0x95, 0x31, 0x6b, 0xbd, 0x7a, 0x8e, 0xdb, 0xbd, 0xfd, 0xe2, 0x32, 0xbd,
  0x8b, 0xdd, 0x6d, 0x3d, 0x71, 0x5d, 0x55, 0xbe, 0x01, 0x89, 0x36, 0x3d,
  0x2a, 0xf7, 0xd3, 0xbd, 0x6d, 0xcc, 0xd7, 0xbd, 0xe0, 0x85, 0x4f, 0xbd,
  0xb3, 0xe7, 0x2a, 0x3d, 0x06, 0x0c, 0x7d, 0xbe, 0x8d, 0xbb, 0x34, 0x3d,
  0x7f, 0x3a, 0x62, 0xbd, 0x85, 0x01, 0xc2, 0xbd, 0xb0, 0x3b, 0x08, 0x3c,
  0xbc, 0x67, 0x91, 0x3d, 0x1a, 0x4c, 0x67, 0xbe, 0x97, 0xb0, 0x7e, 0x3d,
  0xae, 0x89, 0xd1, 0xbd, 0x83, 0x32, 0xa7, 0xbd, 0x1b, 0x6f, 0xbd, 0x3d,
  0x2c, 0x2a, 0x0f, 0x3e, 0x9c, 0x4f, 0x65, 0xbe, 0xa3, 0x75, 0x3b, 0x3d,
  0x83, 0x3a, 0x3c, 0xbd, 0x02, 0x98, 0x88, 0xbc, 0xfd, 0x5e, 0xbf, 0x3d,
  0x59, 0x6c, 0x15, 0x3e, 0x23, 0xe4, 0x7b, 0xbe, 0x41, 0xfd, 0x9b, 0x3d,
  0xd6, 0x71, 0x80, 0xbd, 0x3c, 0xd4, 0x7e, 0xbd, 0x7c, 0xd7, 0xff, 0x3d,
  0xf6, 0xa6, 0xf1, 0x3d, 0xed, 0x18, 0x78, 0xbe, 0xce, 0xd9, 0x7a, 0x3d,
  0x65, 0xd8, 0xce, 0xbd, 0xb9, 0xc6, 0xf7, 0xbc, 0x53, 0xaa, 0x1c, 0x3e,
  0xdb, 0x82, 0x4c, 0x3e, 0x35, 0x3f, 0x9d, 0xbe, 0x3a, 0x0a, 0x23, 0x3c,
  0x8c, 0xde, 0x1e, 0xbd, 0xd2, 0xfa, 0x76, 0xbd, 0xcb, 0x1c, 0x60, 0x3e,
  0x44, 0x3f, 0x69, 0x3e, 0x17, 0xed, 0x94, 0xbe, 0x81, 0x58, 0x36, 0x3d,
  0x8b, 0xd1, 0xa9, 0xbd, 0x61, 0x6d, 0x01, 0x3c, 0x7a, 0xf6, 0x76, 0x3e,
  0x20, 0x71, 0x69, 0x3e, 0xab, 0xec, 0x7c, 0xbe, 0x19, 0xe8, 0x70, 0x3d,
  0x2d, 0xc0, 0xc8, 0xbd, 0x80, 0xb6, 0x77, 0xbd, 0xeb, 0xe3, 0x92, 0x3e,
  0xae, 0x46, 0x7a, 0x3e, 0x2e, 0xbc, 0x8b, 0xbe, 0x30, 0x7b, 0x68, 0x3d,
  0x36, 0xe4, 0xdc, 0xbd, 0x43, 0xc9, 0xb9, 0x3c, 0xe6, 0x89, 0xa2, 0x3e,
  0x59, 0x62, 0x38, 0x3e, 0xe3, 0xc4, 0x95, 0xbe, 0x8c, 0xbb, 0xac, 0x3d,
  0x4e, 0x3d, 0xc2, 0xbd, 0x16, 0x25, 0x29, 0xbc, 0xa8, 0x6e, 0x9a, 0x3e,
  0x91, 0x9d, 0x62, 0x3e, 0xd4, 0x41, 0x94, 0xbe, 0x11, 0x1b, 0x91, 0x3d,
  0x09, 0xe7, 0xc3, 0xbd, 0x33, 0x1d, 0x69, 0xbb, 0xc6, 0x55, 0xb8, 0x3e,
  0xb2, 0x0c, 0x59, 0x3e, 0x2f, 0x64, 0x9f, 0xbe, 0x01, 0x9d, 0x93, 0x3d,
  0x25, 0x01, 0xdc, 0xbd, 0x1d, 0x1d, 0x14, 0xbc, 0x90, 0x10, 0xb7, 0x3e,
  0x77, 0xfa, 0x8a, 0x3e, 0xca, 0x11, 0x95, 0xbe, 0xe2, 0xe9, 0x47, 0x3d,
  0x2c, 0x3f, 0xf8, 0xbd, 0xa1, 0x89, 0x49, 0x3c, 0x53, 0x4f, 0xcc, 0x3e,
  0x71, 0x11, 0x93, 0x3e, 0xcd, 0xe7, 0x9c, 0xbe, 0xde, 0x8f, 0x37, 0x3d,
  0x04, 0x75, 0xca, 0xbd, 0xf6, 0xd6, 0x66, 0x3d, 0x98, 0x27, 0xd1, 0x3e,
  0x0e, 0x11, 0x9b, 0x3e, 0x11, 0x10, 0x97, 0xbe, 0x4e, 0x81, 0x7e, 0x3d,
  0xb3, 0xcf, 0x00, 0xbe, 0x1c, 0xb2, 0xc4, 0x3b, 0x85, 0x40, 0xe0, 0x3e,
  0x75, 0x34, 0xa6, 0x3e, 0x10, 0xa3, 0x90, 0xbe, 0xc6, 0x09, 0xdc, 0x3d,
  0x9a, 0x4f, 0x24, 0xbe, 0x08, 0x18, 0x3b, 0x3d, 0x27, 0xb5, 0xfe, 0x3e,
  0xe8, 0x2a, 0xa3, 0x3e, 0xd2, 0x10, 0x96, 0xbe, 0xb9, 0x71, 0x5a, 0x3d,
  0x7e, 0xa1, 0x42, 0xbe, 0xa4, 0x74, 0x3a, 0x3d, 0x19, 0x27, 0x10, 0x3f,
  0x2e, 0xfa, 0xb2, 0x3e, 0x6c, 0x71, 0x81, 0xbe, 0x0a, 0xe6, 0xd6, 0x3d,
  0xa8, 0x5e, 0x18, 0xbe, 0xd6, 0xd9, 0x25, 0x3d, 0x5f, 0x93, 0x17, 0x3f,
  0xb6, 0xfa, 0xbd, 0x3e, 0x3f, 0x68, 0x84, 0xbe, 0xfa, 0x3e, 0xbc, 0x3d,
  0xb1, 0x11, 0x16, 0xbe, 0x57, 0x58, 0x01, 0x3d, 0xd8, 0x35, 0x1e, 0x3f,
  0xe0, 0x37, 0x9b, 0x3e, 0x94, 0x4d, 0x56, 0xbe, 0x5b, 0x1d, 0xa9, 0x3d,
  0x63, 0x1b, 0x3a, 0xbe, 0x00, 0x3d, 0x64, 0xbc, 0xda, 0x45, 0x03, 0x3d,
  0x86, 0x09, 0x12, 0x3d, 0x70, 0x68, 0xe6, 0x3c, 0xae, 0x49, 0x11, 0x3d,
  0xa6, 0x32, 0x88, 0x3c, 0x4c, 0xf9, 0x18, 0xbd, 0x6c, 0x81, 0xb6, 0x3c,
  0x94, 0x1f, 0x26, 0xbc, 0x2c, 0x2a, 0xc9, 0x3c, 0xbc, 0x47, 0xff, 0x3c,
  0xa8, 0x5a, 0x66, 0xbc, 0xc1, 0xed, 0x8f, 0xbc, 0xd8, 0xcb, 0x02, 0xbc,
  0xd0, 0x10, 0xdd, 0x3c, 0x00, 0x43, 0x5d, 0x3c, 0xd4, 0xdf, 0x04, 0xbd,
  0x32, 0xb2, 0x8b, 0x3c, 0xdb, 0x6f, 0xd4, 0xbc, 0x8e, 0x88, 0xa0, 0x3c,
  0x30, 0x5d, 0x1d, 0x3b, 0x22, 0x07, 0x05, 0x3d, 0x40, 0x38, 0x5a, 0x3b,
  0x54, 0xfd, 0x44, 0x3c, 0x70, 0xd8, 0xab, 0x3b, 0x86, 0x76, 0xb2, 0xbc,
  0x3a, 0x80, 0x0c, 0x3d, 0x7c, 0x75, 0x46, 0x3c, 0x30, 0x6c, 0xd8, 0xbb,
  0xc0, 0x4c, 0xef, 0x3b, 0xc8, 0xc4, 0xdd, 0xbc, 0xa0, 0x77, 0x51, 0x3c,
  0x78, 0x86, 0xfb, 0x3c, 0x74, 0x2c, 0x06, 0xbd, 0x11, 0x97, 0x14, 0xbd,
  0x1a, 0x55, 0x8e, 0xbc, 0xcc, 0xbf, 0xa7, 0xbc, 0xb7, 0x89, 0x9f, 0xbc,
  0x5a, 0xdd, 0xde, 0xbc, 0xf2, 0x1b, 0x2b, 0xbc, 0x78, 0x89, 0xe4, 0x3b,
  0x68, 0xc9, 0x0c, 0x3c, 0x26, 0xb8, 0xee, 0xbc, 0x68, 0xf6, 0x13, 0xbd,
  0xd8, 0xc3, 0xe7, 0x3c, 0xec, 0xb6, 0x55, 0xbc, 0x50, 0x79, 0x05, 0xbb,
  0xea, 0xd6, 0x03, 0xbd, 0xbe, 0x27, 0x03, 0xbc, 0x44, 0xc3, 0xe4, 0x3c,
  0x16, 0xa3, 0x75, 0xbc, 0x9c, 0x0f, 0x12, 0xbc, 0x8e, 0xef, 0x0d, 0xbd,
  0x06, 0x8f, 0x14, 0x3d, 0xe0, 0xc1, 0x04, 0x3c, 0xa0, 0xba, 0x8d, 0x3c,
  0xf2, 0x4f, 0xa7, 0xbc, 0x90, 0xee, 0xf1, 0x3c, 0xc0, 0xae, 0x4d, 0xbb,
  0xea, 0x06, 0xbd, 0xbc, 0x20, 0x3b, 0xf1, 0x3b, 0xd8, 0x06, 0xe6, 0x3b,
  0xc0, 0x2f, 0xf4, 0x3b, 0x96, 0x2b, 0xb7, 0xbc, 0x6c, 0x9f, 0x05, 0xbc,
  0x04, 0x0b, 0x67, 0x3c, 0x12, 0x97, 0x00, 0x3d, 0xf0, 0x9d, 0x7b, 0x3b,
  0xe6, 0x54, 0x96, 0x3c, 0x52, 0xad, 0xca, 0xbc, 0xd8, 0xf6, 0xca, 0x3b,
  0x78, 0x07, 0x08, 0xbd, 0x10, 0x84, 0x00, 0x3b, 0xe8, 0x8e, 0x9b, 0xbb,
  0x26, 0xce, 0x31, 0xbc, 0xa6, 0x5a, 0x91, 0xbc, 0xf8, 0x03, 0x9d, 0xbb,
  0x70, 0x58, 0xf0, 0x3b, 0xb0, 0xe2, 0x8d, 0x3c, 0x70, 0x12, 0x90, 0xbc,
  0xee, 0x61, 0x3e, 0xbc, 0x00, 0x01, 0x9e, 0xba, 0x5a, 0x5f, 0xa1, 0x3c,
  0x78, 0x5f, 0xba, 0x3b, 0x58, 0x7e, 0xd4, 0x3b, 0xba, 0xe3, 0x02, 0xbc,
  0x72, 0xf8, 0xdb, 0xbc, 0x06, 0x82, 0x8a, 0x3c, 0x1c, 0xb3, 0xa8, 0xbc,
  0x00, 0x56, 0x9d, 0x3c, 0x40, 0x31, 0x80, 0x3c, 0xf1, 0xb8, 0x99, 0xbc,
  0xb8, 0xe6, 0x7e, 0xbc, 0xca, 0xc1, 0x83, 0x3c, 0x00, 0xb6, 0x73, 0x39,
  0x8c, 0xdf, 0xed, 0xbc, 0xa0, 0x7f, 0x86, 0x3b, 0x16, 0xcc, 0xdf, 0xbc,
  0x70, 0x24, 0x7a, 0xbb, 0x3a, 0xf4, 0x53, 0xbc, 0x69, 0xa7, 0xee, 0xbc,
  0x56, 0x0a, 0x16, 0xbd, 0x80, 0x25, 0xcc, 0x3c, 0x30, 0x03, 0x25, 0xbc,
  0x72, 0x20, 0x05, 0xbc, 0x84, 0x97, 0x77, 0xbc, 0xd6, 0xd2, 0x84, 0x3c,
  0x8c, 0xed, 0xe5, 0x3c, 0x80, 0xdc, 0x3d, 0x3b, 0x60, 0xb4, 0x35, 0x3b,
  0x97, 0x18, 0x07, 0xbd, 0x04, 0x28, 0xfe, 0xbc, 0xa0, 0x79, 0xd7, 0x3c,
  0x9a, 0x68, 0xb2, 0xbc, 0xb4, 0x61, 0xd2, 0xbb, 0xea, 0x9a, 0x01, 0x3d,
  0x90, 0x11, 0x10, 0x3c, 0x3e, 0x0f, 0xc1, 0xbc, 0x50, 0x74, 0xeb, 0x3c,
  0x48, 0x85, 0x20, 0x3c, 0x68, 0x91, 0x05, 0xbd, 0x78, 0x5f, 0x17, 0x3d,
  0xa4, 0x8d, 0xfb, 0xbb, 0xfc, 0x80, 0xf4, 0x3c, 0xca, 0x42, 0xb4, 0x3c,
  0x8b, 0x30, 0x05, 0xbd, 0x80, 0x2a, 0x46, 0x3b, 0xcf, 0x21, 0x92, 0xbc,
  0x80, 0x62, 0x06, 0x3a, 0x00, 0x80, 0xe3, 0x37, 0xa0, 0x85, 0xde, 0x3c,
  0x58, 0x51, 0x4b, 0xbc, 0x64, 0xfb, 0x6b, 0xbc, 0x80, 0x9a, 0x01, 0xbb,
  0x48, 0x4d, 0x89, 0xbb, 0x28, 0xb1, 0x0e, 0x3c, 0x90, 0xb1, 0x3b, 0xbb,
  0x12, 0x63, 0xc0, 0xbc, 0x64, 0xab, 0x9e, 0xbc, 0x12, 0x50, 0x4a, 0xbc,
  0xe6, 0x2e, 0xa9, 0x3c, 0xaa, 0x96, 0xe0, 0xbc, 0xc8, 0x0e, 0xc4, 0x3b,
  0x86, 0x01, 0x41, 0xbc, 0x60, 0x2d, 0xeb, 0x3c, 0x48, 0x56, 0xfd, 0x3b,
  0xbc, 0x84, 0xd6, 0xbb, 0x6e, 0x56, 0xc9, 0x3c, 0x80, 0x60, 0x82, 0x39,
  0xe0, 0xd3, 0xfe, 0x3c, 0xc5, 0x1c, 0xd8, 0xbc, 0xf0, 0x7c, 0x3a, 0x3c,
  0x49, 0xb3, 0x93, 0xbc, 0x94, 0xe3, 0xca, 0x3c, 0xe0, 0x09, 0x29, 0x3c,
  0x40, 0x6d, 0x54, 0xba, 0x88, 0xdb, 0xdb, 0x3c, 0xf3, 0x73, 0x0c, 0xbd,
  0x40, 0xdf, 0xa6, 0x3c, 0xf0, 0xfc, 0xcd, 0x3b, 0xa8, 0x0e, 0x81, 0x3b,
  0x78, 0xc8, 0x3e, 0x3c, 0x90, 0xed, 0x0c, 0xbb, 0xe2, 0x86, 0x0f, 0xbd,
  0xe2, 0xc6, 0x03, 0x3d, 0xe2, 0xe5, 0x26, 0xbc, 0x80, 0x9f, 0x88, 0x3a,
  0x20, 0x17, 0x94, 0xbb, 0xf8, 0x8a, 0x71, 0x3c, 0x14, 0x9f, 0x25, 0xbc,
  0x10, 0xac, 0xd2, 0x3b, 0x40, 0x26, 0x74, 0xba, 0x90, 0x97, 0x58, 0x3c,
  0x00, 0xbf, 0x4a, 0x3a, 0x5a, 0x6d, 0x32, 0xbc, 0xbc, 0x24, 0x01, 0xbc,
  0x98, 0x06, 0xc6, 0x3b, 0x74, 0xe8, 0x40, 0xbc, 0x66, 0x1f, 0xf2, 0xbc,
  0xd4, 0x4d, 0x0a, 0x3d, 0xce, 0x89, 0x02, 0xbd, 0x68, 0x4b, 0x87, 0x3c,
  0xf0, 0x1a, 0x5b, 0xbc, 0x08, 0xfa, 0x16, 0x3c, 0xb2, 0xde, 0xe2, 0xbc,
  0x90, 0xeb, 0x6a, 0xbc, 0x26, 0xc1, 0x4a, 0xbc, 0xe8, 0x5c, 0x5b, 0x3c,
  0xc0, 0xc2, 0x74, 0x3c, 0x70, 0x61, 0xae, 0x3b, 0xd6, 0x96, 0x4b, 0xbc,
  0xb4, 0xec, 0x16, 0x3d, 0x90, 0xdb, 0x46, 0xbb, 0xb6, 0xe8, 0x43, 0xbc,
  0x0c, 0xae, 0x05, 0x3d, 0x00, 0xcc, 0x1a, 0x3a, 0x2c, 0x5c, 0x15, 0xbd,
  0x26, 0x86, 0xfb, 0xbc, 0xfa, 0x02, 0xc9, 0xbc, 0x60, 0xf7, 0xfd, 0xbc,
  0x9d, 0x4f, 0x0e, 0xbd, 0xfc, 0x70, 0xe7, 0x3c, 0xcc, 0xaf, 0xf9, 0x3c,
  0x7f, 0x10, 0xa5, 0xbc, 0xf8, 0x4e, 0x64, 0xbc, 0x92, 0xd2, 0x94, 0x3c,
  0xe0, 0xfa, 0x44, 0xbc, 0x3e, 0x06, 0x6e, 0xbc, 0xf0, 0xcf, 0xb0, 0x3c,
  0x74, 0x0b, 0x4b, 0xbc, 0x50, 0x47, 0x65, 0x3b, 0x21, 0x94, 0xec, 0xbc,
  0xc3, 0xc8, 0x80, 0xbc, 0x9c, 0x16, 0xd2, 0x3c, 0x08, 0x9d, 0xa8, 0x3b,
  0xd2, 0x9c, 0xa1, 0x3c, 0x8c, 0xf3, 0x10, 0xbc, 0x00, 0xa0, 0xc5, 0x3c,
  0xa0, 0xba, 0xd7, 0x3a, 0xbc, 0xa1, 0xb6, 0x3c, 0x38, 0x4f, 0x1e, 0x3c,
  0x08, 0xd5, 0x19, 0x3c, 0x20, 0x1c, 0x14, 0x3d, 0xa0, 0x28, 0xcd, 0x3c,
  0x60, 0x61, 0xcc, 0xbb, 0x56, 0x59, 0x85, 0xbc, 0x08, 0x5c, 0xba, 0x3c,
  0x8b, 0xe1, 0xb5, 0xbc, 0xbe, 0x06, 0x13, 0x3d, 0x0d, 0x74, 0x82, 0xbc,
  0x7a, 0x41, 0x66, 0xbc, 0xee, 0x20, 0xd0, 0xbc, 0x01, 0x97, 0xf7, 0xbc,
  0xe7, 0x00, 0x94, 0xbc, 0xd0, 0x3f, 0x16, 0x3d, 0x1c, 0x63, 0x02, 0x3d,
  0x00, 0xbc, 0xa4, 0xbb, 0x8c, 0x1f, 0x37, 0xbc, 0x7c, 0x27, 0x4b, 0xbc,
  0x58, 0x8b, 0x93, 0x3b, 0x20, 0x08, 0x52, 0xbb, 0xd8, 0x46, 0x12, 0x3c,
  0x23, 0x5a, 0xcb, 0xbc, 0x98, 0x51, 0xfb, 0x3b, 0xc4, 0x05, 0xba, 0x3c,
  0x3c, 0x99, 0x99, 0x3c, 0x8c, 0x3c, 0x05, 0xbc, 0x66, 0x1a, 0xe8, 0xbc,
  0x40, 0x01, 0x46, 0x3a, 0x20, 0x51, 0xc7, 0xbb, 0x82, 0x03, 0x17, 0x3d,
  0xda, 0xfd, 0xc4, 0x3c, 0xb0, 0xa2, 0x76, 0x3c, 0xdc, 0xdc, 0xc7, 0xbc,
  0x74, 0x9d, 0x8d, 0x3c, 0xca, 0x6a, 0x11, 0xbd, 0x70, 0xae, 0xcd, 0x3c,
  0x70, 0xf4, 0xf1, 0xbc, 0x9c, 0xe9, 0xee, 0x3c, 0x66, 0xf4, 0x80, 0x3c,
  0xac, 0x01, 0x0b, 0x3c, 0x3a, 0x6f, 0x88, 0x3c, 0x1d, 0x11, 0xd7, 0xbc,
  0x4c, 0xc8, 0x8a, 0x3c, 0xd2, 0xb8, 0xb3, 0x3c, 0x2c, 0x8a, 0x45, 0x3c,
  0x54, 0x95, 0x11, 0xbd, 0x1a, 0x9d, 0x86, 0xbc, 0x2b, 0xa3, 0x9c, 0xbc,
  0x34, 0xb4, 0x34, 0x3c, 0x06, 0xa0, 0x07, 0xbc, 0x44, 0xb6, 0xf9, 0x3c,
  0x14, 0xac, 0x07, 0x3d, 0xf4, 0x1a, 0x0b, 0x3d, 0x5c, 0x51, 0x1a, 0x3c,
  0x14, 0x15, 0xd4, 0x3c, 0x9d, 0x1a, 0x13, 0xbd, 0xdb, 0xbe, 0xf0, 0xbc,
  0xc4, 0xd8, 0x2b, 0xbc, 0x2c, 0x49, 0x2c, 0xbc, 0x7a, 0x7c, 0xb6, 0xbc,
  0x0a, 0x1e, 0x25, 0xbc, 0x45, 0x28, 0xf0, 0xbc, 0x14, 0xd2, 0xd7, 0xbb,
  0x6c, 0xd1, 0x00, 0xbc, 0xba, 0x2f, 0x5c, 0xbc, 0xa8, 0xaa, 0x9e, 0x3c,
  0x5a, 0x95, 0x97, 0xbc, 0x80, 0xda, 0xf8, 0x3b, 0x18, 0x93, 0x0c, 0x3c,
  0x00, 0x3c, 0x98, 0x39, 0xe8, 0xe4, 0x08, 0x3d, 0x42, 0x1e, 0x16, 0xbd,
  0x71, 0x2c, 0xd9, 0xbc, 0xb8, 0xc9, 0x32, 0xbc, 0xa3, 0x1a, 0xb2, 0xbc,
  0x60, 0x2f, 0xf3, 0x3a, 0x8e, 0xbd, 0xa6, 0x3c, 0x83, 0xf1, 0xeb, 0xbc,
  0x94, 0x85, 0x13, 0x3c, 0x09, 0xe9, 0xd1, 0xbc, 0x48, 0x68, 0x1b, 0x3c,
  0xc4, 0xbd, 0xf4, 0xbc, 0x10, 0xe7, 0x28, 0x3c, 0x88, 0xc8, 0x54, 0xbc,
  0xa0, 0x94, 0xef, 0xba, 0x90, 0x1f, 0xff, 0x3c, 0x4e, 0xd9, 0xbb, 0x3c,
  0xda, 0x2a, 0x2f, 0xbc, 0x20, 0xf2, 0x4b, 0xbb, 0x98, 0x73, 0xdf, 0x3b,
  0xf4, 0xfb, 0x8a, 0x3c, 0x00, 0x17, 0xd1, 0xba, 0xa6, 0xab, 0xd2, 0xbc,
  0x40, 0xdf, 0x98, 0xbb, 0xf2, 0x84, 0x87, 0xbc, 0x89, 0xdf, 0xca, 0xbc,
  0x5c, 0xef, 0x06, 0x3d, 0xe1, 0xb8, 0xc7, 0xbc, 0xa0, 0x4a, 0x65, 0x3c,
  0xfa, 0x63, 0xdc, 0xbc, 0x50, 0xf5, 0x24, 0xbb, 0x80, 0x24, 0x9c, 0xbb,
  0x3c, 0x2e, 0xdc, 0x3c, 0x40, 0x8c, 0xe0, 0xbb, 0x70, 0x2b, 0x65, 0xbb,
  0x0d, 0x28, 0xa9, 0xbc, 0x2e, 0xba, 0xc5, 0xbc, 0x65, 0x5b, 0xd1, 0xbc,
  0x70, 0xec, 0x0e, 0xbb, 0xde, 0x9a, 0x11, 0x3d, 0x70, 0xf3, 0x5f, 0xbb,
  0xd0, 0x4c, 0x05, 0xbc, 0xb8, 0xf6, 0xf3, 0xbc, 0x78, 0xb7, 0xd5, 0xbb,
  0x58, 0x68, 0xde, 0x3c, 0x38, 0x83, 0xb1, 0xbc, 0x0a, 0xe6, 0xde, 0xbc,
  0x54, 0xdc, 0xa0, 0xbc, 0x02, 0x30, 0xe4, 0xbc, 0x2b, 0x98, 0x8b, 0xbc,
  0x64, 0xb4, 0xcc, 0xbc, 0x62, 0xa2, 0x0d, 0x3d, 0xd8, 0xd5, 0x0c, 0x3d,
  0x18, 0x84, 0xa6, 0x3b, 0x0d, 0x74, 0x8f, 0xbc, 0x62, 0x93, 0x05, 0x3d,
  0x73, 0x63, 0x85, 0xbc, 0xa8, 0x12, 0x51, 0x3c, 0x58, 0x6a, 0x8f, 0x3b,
  0xc8, 0xb6, 0xda, 0xbc, 0x20, 0xa7, 0xb4, 0x3c, 0x54, 0x4c, 0x4f, 0xbc,
  0xc8, 0x6f, 0x1f, 0xbc, 0xde, 0xfc, 0x08, 0xbd, 0x24, 0xf7, 0x08, 0xbc,
  0x28, 0xc7, 0x2a, 0x3c, 0x70, 0x07, 0xbf, 0x3b, 0x34, 0xcd, 0xb6, 0x3c,
  0xc8, 0x35, 0xbc, 0x3b, 0x70, 0x6d, 0x54, 0x3c, 0x01, 0x48, 0x8b, 0xbc,
